00D700D6008D
FE81FF7B0021
00B50044FFA9
005900030118
00AFFFF50099
00A4000C001B
FF31FE3A0095
008B002CFE74
018001CC0093
FF3900DF0061
0111002EFF42
00C0FF26003A
FF94015E0214
FFAAFF5DFFE5
00B60014FF1F
018E01880111
FEE5FF2BFEC0
FF9700C9FFCC
011CFF08FFD8
FF73FF8E001E
FF5500060020
001400140079
0034000A003E
000C00D2FE50
FF55FE81FED0
FEB3FE260064
001F00760084
00F900DB00C1
FF3DFEE6FF7F
FF75FEF0002D
FFEAFF7D00C0
00AB0081FF42
FF7D00D00087
010900D3018D
FF97FE53011F
0035FE3900B5
00E400BA00EB
007D01840027
019001050085
FEC7FF6DFF2F
FFC30108FFE9
0073FFD6FFD3
00C4FF4DFF36
FF0100570014
FFFBFF20FF09
FF33FFBCFF92
0128006D003F
FF8F00EE0086
00C4FFAE00AF
FF8D00770182
FF45018F006A
00660007FEB4
0042FF52FF6A
FF26FEFDFFCC
FEF3FD9DFF7C
FE5F000CFF3B
FFBCFF470032
FF38FFFFFFB3
FE9700160187
FF64FD95FF63
0087FFF3FEF6
020501DB0125
0146FF6A00BB
002AFFEFFF9C
0020FF6C0022
FFACFF89008B
FF10FE00FFBB
017A00500122
FFE0FFE4FF7B
FF4AFF6AFE9F
0131FF75FFAD
004900670057
