00AA
000D
0076
FFFF
0000
FFD2
FFFF
000E
0054
0038
FFEF
FFE0
0004
0095
0014
00CE
003B
009A
0083
005B
0032
004F
FFD0
012A
000B
000F
0092
FF2C
00A0
FF63
FF78
FF38
0082
0138
FFC0
0091
FEF2
FFA7
0018
0009
FF47
003E