01BD0030011D000000C60000004D0055 01BD0030011D000000C60000004D0055 01BD0030011D000000C60000004D0055 01BD0030011D000000C60000004D0055 01BD0030011D000000C60000004D0055 01BD0030011D000000C60000004D0055 01BD0030011D000000C60000004D0055 01BD0030011D000000C60000004D0055 01BD0030011D000000C60000004D0055 01BD0030011D000000C60000004D0055 01BD0030011D000000C60000004D0055 01BD0030011D000000C60000004D0055 01BD0030011D000000C60000004D0055 01BD0030011D000000C60000004D0055 01BD0030011D000000C60000004D0055 01BD0030011D000000C60000004D0055 01BD0030011D000000C60000004D0055 01BD0030011D000000C60000004D0055 01BD0030011D000000C60000004D0055 01BD0030011D000000C60000004D0055 01BD0030011D000000C60000004D0055 01BD0030011D000000C60000004D0055 01BD0030011D000000C60000004D0055 01BD0030011D000000C60000004D0055 01BD0030011D000000C60000004D0055 01BD0030011D000000C60000004D0055 01BD0030011D000000C60000004D0055 01BD0030011D000000C60000004D0055
01BD0030011D000000C60000004D0055 01BD0030011D000000C60000004D0055 01BD0030011D000000C60000004D0055 01BD0030011D000000C60000004D0055 01BD0030011D000000C60000004D0055 01BD0030011D000000C60000004D0055 01BD0030011D000000C60000004D0055 01BD0030011D000000C60000004D0055 01BD0030011D000000C60000004D0055 01BD0030011D000000C60000004D0055 01BD0030011D000000C60000004D0055 01BD0030011D000000C60000004D0055 01BD0030011D000000C60000004D0055 01BD0030011D000000C60000004D0055 01BD0030011D000000C60000004D0055 01BD0030011D000000C60000004D0055 01BD0030011D000000C60000004D0055 01BD0030011D000000C60000004D0055 01BD0030011D000000C60000004D0055 01BD0030011D000000C60000004D0055 01BD0030011D000000C60000004D0055 01BD0030011D000000C60000004D0055 01BD0030011D000000C60000004D0055 01BD0030011D000000C60000004D0055 01BD0030011D000000C60000004D0055 01BD0030011D000000C60000004D0055 01BD0030011D000000C60000004D0055 01BD0030011D000000C60000004D0055
01BD0030011D000000C60000004D0055 01BD0030011D000000C60000004D0055 01BD0030011D000000C60000004D0055 01BD0030011D000000C60000004D0055 01BD0030011D000000C60000004D0055 01BD0030011D000000C60000004D0055 01BD0030011D000000C60000004D0055 01BD0030011D000000C60000004D0055 01BD0030011D000000C60000004D0055 01BD0030011D000000C60000004D0055 01BD0030011D000000C60000004D0055 01BD0030011D000000C60000004D0055 01BD0030011D000000C60000004D0055 01BD0030011D000000C60000004D0055 01BD0030011D000000C60000004D0055 01BD0030011D000000C60000004D0055 01BD0030011D000000C60000004D0055 01BD0030011D000000C60000004D0055 01BD0030011D000000C60000004D0055 01BD0030011D000000C60000004D0055 01BD0030011D000000C60000004D0055 01BD0030011D000000C60000004D0055 01BD0030011D000000C60000004D0055 01BD0030011D000000C60000004D0055 01BD0030011D000000C60000004D0055 01BD0030011D000000C60000004D0055 01BD0030011D000000C60000004D0055 01BD0030011D000000C60000004D0055
01BD0030011D000000C60000004D0055 01BD0030011D000000C60000004D0055 01BD0030011D000000C60000004D0055 01BD0030011D000000C60000004D0055 01BD0030011D000000C60000004D0055 01BD0030011D000000C60000004D0055 01BD0030011D000000C60000004D0055 01BD0030011D000000C60000004D0055 01BD0030011D000000C60000004D0055 01BD0030011D000000C60000004D0055 01BD0030011D000000C60000004D0055 01BD0030011D000000C60000004D0055 01BD0030011D000000C60000004D0055 01BD0030011D000000C60000004D0055 01BD0030011D000000C60000004D0055 01BD0030011D000000C60000004D0055 01BD0030011D000000C60000004D0055 01BD0030011D000000C60000004D0055 01BD0030011D000000C60000004D0055 01BD0030011D000000C60000004D0055 01BD0030011D000000C60000004D0055 01BD0030011D000000C60000004D0055 01BD0030011D000000C60000004D0055 01BD0030011D000000C60000004D0055 01BD0030011D000000C60000004D0055 01BD0030011D000000C60000004D0055 01BD0030011D000000C60000004D0055 01BD0030011D000000C60000004D0055
01BD0030011D000000C60000004D0055 01BD0030011D000000C60000004D0055 01BD0030011D000000C60000004D0055 01BD0030011D000000C60000004D0055 01BD0030011D000000C60000004D0055 01BD0030011D000000C60000004D0055 01BD0030011D000000C60000004D0055 01BD0030011D000000C60000004D0055 01BD0030011D000000C60000004D0055 01BD0030011D000000C60000004D0055 01BD0030011D000000C60000004D0055 01BD0030011D000000C60000004D0055 01BD0030011D000000C60000004D0055 01BD0030011D000000C60000004D0055 01BD0030011D000000C60000004D0055 01BD0030011D000000C60000004D0055 01BD0030011D000000C60000004D0055 01BD0030011D000000C60000004D0055 01BD0030011D000000C60000004D0055 01BD0030011D000000C60000004D0055 01BD0030011D000000C60000004D0055 01BD0030011D000000C60000004D0055 01BD0030011D000000C60000004D0055 01BD0030011D000000C60000004D0055 01BD0030011D000000C60000004D0055 01BD0030011D000000C60000004D0055 01BD0030011D000000C60000004D0055 01BD0030011D000000C60000004D0055
01BD0030011D000000C60000004D0055 01BD0030011D000000C60000004D0055 01BD0030011D000000C60000004D0055 01BD0030011D000000C60000004D0055 021600FF02180000019F000001430042 039E02CC033200960445000003DE003A 06540292006E0158073E000007240068 085700000000012609C700000AA40000 084F00000000000F0AB500000BAB0000 06E60000000000000919009309F80000 04CD000000000000065A010206890000 0332000000000000039200A8037A0000 022E00000000000001D200510169001F 01D6000D00C2000000FF0002008A0059 01BD0030011D000000C60000004D0055 01BD0030011D000000C60000004D0055 01BD0030011D000000C60000004D0055 01BD0030011D000000C60000004D0055 01BD0030011D000000C60000004D0055 01BD0030011D000000C60000004D0055 01BD0030011D000000C60000004D0055 01BD0030011D000000C60000004D0055 01BD0030011D000000C60000004D0055 01BD0030011D000000C60000004D0055 01BD0030011D000000C60000004D0055 01BD0030011D000000C60000004D0055 01BD0030011D000000C60000004D0055 01BD0030011D000000C60000004D0055
01BD0030011D000000C60000004D0055 01BD0030011D000000C60000004D0055 01BD0030011D000000C60000004D0055 01BD0030011D000000C60000004D0055 039802C7032800E10431015E04B50000 09C707DD024B051C0C1B00590CCB0000 1205080A00000A021419000014070000 17260000000009C31A4400001AC60000 167600000000053E1B2700001BCC0108 132C00000000002D18E900001A2C0079 0F95000000000000152F006217480022 0C56000000000000121000F814270000 0AD00000000000000FBE00AC11340000 0A2D0000000000000E7400030FBC0000 0A300000000000870E1500000F2B0000 0A300000000000870E1500000F2B0000 0A300000000000870E1500000F2B0000 0A300000000000870E1500000F2B0000 0A1B00000000006C0DE500000F070000 09690000000000000CAA00130E050000 075E00000000000009FF00E80B0A0000 048D000000000000064E0181066F0000 029700000000000002E500D902870000 01E0000000920000011B001100A90058 01BD0030011D000000C60000004D0055 01BD0030011D000000C60000004D0055 01BD0030011D000000C60000004D0055 01BD0030011D000000C60000004D0055
01BD0030011D000000C60000004D0055 01BD0030011D000000C60000004D0055 01BD0030011D000000C60000004D0055 01BD0030011D000000C60000004D0055 06C70303000002DF04EC061F07260000 118809BB00000A920BEB0B1312350000 1DC6122500000FE714D800001BAC03B7 276F149D00000E211BC200002388069D 290B14FD000006721F9900002854047B 27511203000001AE21A40000283600FB 22940813000001C0221F00002570008E 1D540000000000A01F8C000022E20054 19420000000001581E6300BF215D0000 17F90000000002E61E2F00FE20E90000 186B0000000005241E57000020980000 189F00000000050C1EAA000020F70000 18870000000004E71E98000020E50000 18430000000004E91E5C000020A40000 17FB0000000004D51DFB00001FEE0000 16F20000000003311B4F00001C5D00C8 118F00000000000015FF0000176E0184 092E0000000000000DA303500F390051 0376000000000000060D037E06D00000 01EE00000000000001D500DB01B40000 01BD0030011D000000C60000004D0055 01BD0030011D000000C60000004D0055 01BD0030011D000000C60000004D0055 01BD0030011D000000C60000004D0055
01BD0030011D000000C60000004D0055 01BD0030011D000000C60000004D0055 01BD0030011D000000C60000004D0055 01BD0030011D000000C60000004D0055 08970000000004CA04940965022601D4 1426000F00000EE00732133407BB094D 1FF6073E00000E4C0C7E07110C050E6D 2AD01178000008EC165200000FE409EF 2EC81C75000000001866000017930489 2F612564000000001AD502071EF7001C 2F3E2A05000000001E22005C25B2016D 2EBE2848000000001EA7007A27D70341 2CAF20BD0000011C1D3602CA29160632 2B871D88000001921BB106252AB606DB 2BEC1CC9000004261C2B037D2A390702 2C361BA50000047C1C7103062A6A07D0 2B991A7A000003991B5103B529750852 2B501BA4000003BE1C7B04BA2B0E07BE 2CB21E1F000005891FDE02202CF906E8 2C9B19FB000006EC1EA0000027650918 235507BF000000001A0600001D6F06A1 11F3000000000000121B040613BD025A 05B300000000000007380787099A0000 01E400000000000001BE025C02B50000 01BD0030011D000000C60000004D0055 01BD0030011D000000C60000004D0055 01BD0030011D000000C60000004D0055 01BD0030011D000000C60000004D0055
01BD0030011D000000C60000004D0055 01BD0030011D000000C60000004D0055 01BD0030011D000000C60000004D0055 01BD0030011D000000C60000004D0055 06FF00000154057202A6062C000002C6 0E9F000003DF109F04920E3A000007F4 163B00000A02136E07F705BA0000057A 1D8300000DA10EE60FF7000000000000 20A100000A7B0B8F1591007100000000 2252000007A108FD178A061E00000000 2523078A04540513199C05C3030E028C 287511FE015D00761AA7018C07FC0418 2BF9175C000000001ABC00000BB8062F 2D80180800000000182302920DFC080D 2DE5188300000000173600AD0EB708DB 2F0F18DE0000000018B700000ED6098B 2E4518BA00000000181400000E330A14 300F1AC7000000001B9401FC13E6083A 32871EC8000004711E7502F419E406E5 317421790000066620C2000019D2056C 28F416C0000000001F9200001515004A 1687077C00000000171603E1108F0000 087B028800C20000092309A20A280000 030800BD00E1000001A5032603190000 01BD0030011D000000C60000004D0055 01BD0030011D000000C60000004D0055 01BD0030011D000000C60000004D0055 01BD0030011D000000C60000004D0055
01BD0030011D000000C60000004D0055 01BD0030011D000000C60000004D0055 01BD0030011D000000C60000004D0055 01BD0030011D000000C60000004D0055 04380000033E03B30132022100000183 0757000007DC0AF40214049E0000017D 0A3D00000D790EDF03E1041C00000000 0C5A000010900DD30801017F00000000 0EE5000011250E130BB3027800000000 11950000125E10EE0CD2046F00000000 147F00001388135D0EDA04A600000000 16DD00001370116711A7017D00000000 18FD0000119A0EA214FE000000000000 1B3900000F6F0FCE158B012800000000 1BAE00000F460F1E14C900F300000000 1CB400000FA50EC8163B000000000000 1D50000011C60DC31839000000000000 2278000010AE144E2095023A00000000 28EB0000079A205322C401EF01E2083B 27CE01C9000017731F9A000006420BE0 213307E90052012E2466000008850000 154A08D2066100001A5F06720B6D0000 089106AB032300000C6A0A2A071C0000 03BD035702140000037802DD01EF0043 01BD0030011D000000C60000004D0055 01BD0030011D000000C60000004D0055 01BD0030011D000000C60000004D0055 01BD0030011D000000C60000004D0055
01BD0030011D000000C60000004D0055 01BD0030011D000000C60000004D0055 01BD0030011D000000C60000004D0055 01BD0030011D000000C60000004D0055 02390000019C007000D70049000000B6 02E4000002FA025600CD00EC0000007C 030900000485037A010F00CD00000000 039E000005BB03A0022100AE00000000 045800000699043102EC012400000000 05660000085906E5033801FE00000000 071100000B280A7B03EA031700000000 082000000DA90B54052202DA00000000 098400000F050ACF0748018400000000 0AAC00000F110B4808CF025200000000 0B7500000FED0C1A08DA02BE00000000 0C05000011F40C2A0AC701C200000000 10E5000011F40F49127B03E900000000 1D4D00000C251EA71AFE045704270409 26E00000000028B81DF1000001821A5A 23B5000000001A5C1B91000000E11028 19F00000006F00001FAE000003E80000 0F1802C00573000016F20B3707CB0000 07B206D8039A00000AB607D7044B0000 03A4035A023E0000036B013B007F011F 01BD0030011D000000C60000004D0055 01BD0030011D000000C60000004D0055 01BD0030011D000000C60000004D0055 01BD0030011D000000C60000004D0055
01BD0030011D000000C60000004D0055 01BD0030011D000000C60000004D0055 01BD0030011D000000C60000004D0055 01BD0030011D000000C60000004D0055 01BD0030011D000000C60000004D0055 01BD0030011D000000C60000004D0055 01BD0030011D000000C60000004D0055 01BD0030011D000000C60000004D0055 01BD0030011D000000C60000004D0055 01DB0014013C000000C900000024006E 024A000001DB00BE00D2005F00000094 02360000026C012E00C6004F00000000 02A9000003320172014C003900000000 02F60000037E01A001A5007C0000004D 0350000004C9027F025F009700000000 065E006F06AA04C70752021303E90000 11D8032401690FE81002069B0C9E022F 210D000000002131140004380D411751 26640000000021D314B2000007A521A4 2155000000000D391946000004A40111 15E00000051B000018AC000007040000 0A2502120564000010800B6606BF0000 05C7053103C60000072C045401B20138 0276016C019F000001E5001F0000013C 01BD0030011D000000C60000004D0055 01BD0030011D000000C60000004D0055 01BD0030011D000000C60000004D0055 01BD0030011D000000C60000004D0055
01BD0030011D000000C60000004D0055 01BD0030011D000000C60000004D0055 01BD0030011D000000C60000004D0055 01BD0030011D000000C60000004D0055 01BD0030011D000000C60000004D0055 01BD0030011D000000C60000004D0055 01BD0030011D000000C60000004D0055 01BD0030011D000000C60000004D0055 01BD0030011D000000C60000004D0055 01BD0030011D000000C60000004D0055 01BD0030011D000000C60000004D0055 01BD0030011D000000C60000004D0055 01BD0030011D000000C60000004D0055 01BD0030011D000000C60000004D0055 02EE01C4024F006102EA00E503190000 0AEB059700AE07640A4F06040BEF0000 1A6B049C000018AF11590789103B0E25 26210000000023DB12EA0000092F23DA 24D50000000017D312AB000003B41570 1C2D000000EC000017F0000005C60000 10E7046407C5000014D20566082D0000 08FD0851048400000B7D070E050E0000 041203C40268000003D30192009501A3 01D000480126000000E90000003E007C 01BD0030011D000000C60000004D0055 01BD0030011D000000C60000004D0055 01BD0030011D000000C60000004D0055 01BD0030011D000000C60000004D0055
01BD0030011D000000C60000004D0055 01BD0030011D000000C60000004D0055 01BD0030011D000000C60000004D0055 01BD0030011D000000C60000004D0055 01BD0030011D000000C60000004D0055 01BD0030011D000000C60000004D0055 01BD0030011D000000C60000004D0055 01BD0030011D000000C60000004D0055 01BD0030011D000000C60000004D0055 01BD0030011D000000C60000004D0055 01BD0030011D000000C60000004D0055 01BD0030011D000000C60000004D0055 01BD0030011D000000C60000004D0055 01C200430138000000D900000063004F 052802DA01CC025404C903B305EF0000 126905BB00000F100DD20AB20E6304FE 21E201D30000208F11CE03BF0D16199E 26DA000000001FBD133A0000063C2137 20D50000000009C317920000038A0000 15AC000006EE0000159F0167050B0000 0A57031905BD00001032099B04A10000 064606AA040E0000081E03240114012E 0299019E01A7000002150055002200F3 01BD0030011D000000C60000004D0055 01BD0030011D000000C60000004D0055 01BD0030011D000000C60000004D0055 01BD0030011D000000C60000004D0055 01BD0030011D000000C60000004D0055
01BD0030011D000000C60000004D0055 01BD0030011D000000C60000004D0055 01BD0030011D000000C60000004D0055 01BD0030011D000000C60000004D0055 01BD0030011D000000C60000004D0055 01BD0030011D000000C60000004D0055 01BD0030011D000000C60000004D0055 01BD0030011D000000C60000004D0055 01BD0030011D000000C60000004D0055 01BD0030011D000000C60000004D0055 01BD0030011D000000C60000004D0055 01BD0030011D000000C60000004D0055 01BD0030011D000000C60000004D0055 025A016D028400080229002701ED001F 09B2031701530678096205FE09130030 19E402290000190A0FE10BE40D300D13 247D00000000238E1183000006BF20CA 23910000000015C2148B000003C40F45 1A38000002C500001946000003D30000 0DC4000006B000001399095D05DA0000 079E056E051200000A1D069D02E60000 03C3033C02DD0000040E00BB00000276 01F6008A0147000001200000002500BB 01BD0030011D000000C60000004D0055 01BD0030011D000000C60000004D0055 01BD0030011D000000C60000004D0055 01BD0030011D000000C60000004D0055 01BD0030011D000000C60000004D0055
01BD0030011D000000C60000004D0055 01BD0030011D000000C60000004D0055 01BD0030011D000000C60000004D0055 01BD0030011D000000C60000004D0055 01BD0030011D000000C60000004D0055 01BD0030011D000000C60000004D0055 01BD0030011D000000C60000004D0055 01BD0030011D000000C60000004D0055 01BD0030011D000000C60000004D0055 01BD0030011D000000C60000004D0055 01BD0030011D000000C60000004D0055 01BD0030011D000000C60000004D0055 020B00E801FF00000188000001280044 054103F2033401DF06800157072C0000 1157037900000EEA0E9706D20D49040B 1FCC0000000021BA111906560AF417C0 23610000000020F5115F0000041A1DBF 1DDF0000000008B917B0000002BF0000 1343000006E90000165D024905D10000 092F041C04D300000E970A0205610000 056805BD03990000064302BC00E8019B 021900C8015E000001540000001300E1 01BD0030011D000000C60000004D0055 01BD0030011D000000C60000004D0055 01BD0030011D000000C60000004D0055 01BD0030011D000000C60000004D0055 01BD0030011D000000C60000004D0055 01BD0030011D000000C60000004D0055
01BD0030011D000000C60000004D0055 01BD0030011D000000C60000004D0055 01BD0030011D000000C60000004D0055 01BD0030011D000000C60000004D0055 01BD0030011D000000C60000004D0055 01BD0030011D000000C60000004D0055 01BD0030011D000000C60000004D0055 01BD0030011D000000C60000004D0055 01BD0030011D000000C60000004D0055 01BD0030011D000000C60000004D0055 01BD0030011D000000C60000004D0055 01CB005C015E000000F20000007F004D 03BB02EE033B00E50465010304CF0000 0BFB062F004608380C4404620DB10000 1A9E036D000019D0116E04CC103A0FF7 24440000000022E7116A000008E32333 212B00000000156E124E00000379112B 18A30000016F000017A6000004580000 0CF300A0061A000012D308F906920000 072D06140434000009540690033D0000 034302C4024A0000033B0091000001D6 01C200350120000000CD00000049005E 01BD0030011D000000C60000004D0055 01BD0030011D000000C60000004D0055 01BD0030011D000000C60000004D0055 01BD0030011D000000C60000004D0055 01BD0030011D000000C60000004D0055 01BD0030011D000000C60000004D0055
01BD0030011D000000C60000004D0055 01BD0030011D000000C60000004D0055 01BD0030011D000000C60000004D0055 01BD0030011D000000C60000004D0055 01BD0030011D000000C60000004D0055 01BD0030011D000000C60000004D0055 01BD0030011D000000C60000004D0055 01BD0030011D000000C60000004D0055 01BD0030011D000000C60000004D0055 01BD0030011D000000C60000004D0055 01BD00330124000000CB000000510052 02D7023E034E005C0322005903150000 0911056301E005210A5702FD0B6F0000 166F052C000013E1104B05AA11E709AB 231C00000000212D125400000EC82011 2591000000001C8B1206000005CC212D 1DFF0000000004A3161E000005160000 13010000071100001431017D06760000 08DC045F04C800000E0E092D05610000 0551059C0389000005FD02B600F2019C 020B00AE01590000013E0000001800DE 01BD0030011D000000C60000004D0055 01BD0030011D000000C60000004D0055 01BD0030011D000000C60000004D0055 01BD0030011D000000C60000004D0055 01BD0030011D000000C60000004D0055 01BD0030011D000000C60000004D0055 01BD0030011D000000C60000004D0055
01BD0030011D000000C60000004D0055 01BD0030011D000000C60000004D0055 01BD0030011D000000C60000004D0055 01BD0030011D000000C60000004D0055 01BD0030011D000000C60000004D0055 01BD0030011D000000C60000004D0055 01BD0030011D000000C60000004D0055 01BD0030011D000000C60000004D0055 01BD0030011D000000C60000004D0055 01BD0030011D000000C60000004D0055 01E3008901900000012A000000C4003F 062F049502A90288072A035108B20000 1289073900000E950FEF06CA1109037A 2157023C00001F3613A4000F111419DF 278600000000203612D700000923267E 2284000000000ED114E60000044E0A54 1907000004AB0000169D000005F70000 0CC8026C06F40000124E07C805CF0000 0721066804470000095405BF02DC0024 033702BA023F000003260094000001C4 01BD0030011D000000C60000004D0055 01BD0030011D000000C60000004D0055 01BD0030011D000000C60000004D0055 01BD0030011D000000C60000004D0055 01BD0030011D000000C60000004D0055 01BD0030011D000000C60000004D0055 01BD0030011D000000C60000004D0055 01BD0030011D000000C60000004D0055
01BD0030011D000000C60000004D0055 01BD0030011D000000C60000004D0055 01BD0030011D000000C60000004D0055 01BD0030011D000000C60000004D0055 01BD0030011D000000C60000004D0055 01BD0030011D000000C60000004D0055 01BD0030011D000000C60000004D0055 01BD0030011D000000C60000004D0055 01BD0030011D000000C60000004D0055 01D7007A018400000110000000A10049 038302CF036F00BA041E006204300000 0CFF04A5000008D20C1E06DF0D470000 1C58043700001A681062089111DD1179 26FD00000000213F121400000B4124B9 26B4000000001754150D000003E91729 1D5C000002460000169C0000051E0000 124000610911000013F00399053E0000 08CE061005AE00000D9E069B03940000 04FC051C037E000005B10228008D01DB 020A00AB01580000013D0000001800DC 01BD0030011D000000C60000004D0055 01BD0030011D000000C60000004D0055 01BD0030011D000000C60000004D0055 01BD0030011D000000C60000004D0055 01BD0030011D000000C60000004D0055 01BD0030011D000000C60000004D0055 01BD0030011D000000C60000004D0055 01BD0030011D000000C60000004D0055
01BD0030011D000000C60000004D0055 01BD0030011D000000C60000004D0055 01BD0030011D000000C60000004D0055 01BD0030011D000000C60000004D0055 01BD0030011D000000C60000004D0055 01BD0030011D000000C60000004D0055 01BD0030011D000000C60000004D0055 01BD0030011D000000C60000004D0055 01BD0030011D000000C60000004D0055 02A00195027400300285007602790000 083D0590023A0462099D02D80AD10000 16AB0465000014A7116606870FF2092E 23DA0000000023F6130401060C06202A 26A8000000001DF3123B0000035420BB 1FCA00000000057617A2000002940000 160C000008590000153101A304DB0000 0B1D033706960000106A079103740000 063F060C04B200000888033800FE015C 02F102400207000002AA005A000001B8 01BD0030011D000000C60000004D0055 01BD0030011D000000C60000004D0055 01BD0030011D000000C60000004D0055 01BD0030011D000000C60000004D0055 01BD0030011D000000C60000004D0055 01BD0030011D000000C60000004D0055 01BD0030011D000000C60000004D0055 01BD0030011D000000C60000004D0055 01BD0030011D000000C60000004D0055
01BD0030011D000000C60000004D0055 01BD0030011D000000C60000004D0055 01BD0030011D000000C60000004D0055 01BD0030011D000000C60000004D0055 01BD0030011D000000C60000004D0055 01BD0030011D000000C60000004D0055 01BD0030011D000000C60000004D0055 01BD0030011D000000C60000004D0055 01F900C501D700000161000000FD0045 0549038202DF02440616022A06E00000 108806B200000D2B0D83070B0FD00321 2099047300001FA3138A037B123A177F 29A10000000023FB157D00000B4725AC 257600000000130A1977000006990A1B 19800000000000001AF7000005FD0000 0C660000046F000013D30D8405740000 0716045D04D200000AB705D701C90000 03B4033F02CC0000040F00C40000022E 01EB0073013C0000010C0000002D00A7 01BD0030011D000000C60000004D0055 01BD0030011D000000C60000004D0055 01BD0030011D000000C60000004D0055 01BD0030011D000000C60000004D0055 01BD0030011D000000C60000004D0055 01BD0030011D000000C60000004D0055 01BD0030011D000000C60000004D0055 01BD0030011D000000C60000004D0055 01BD0030011D000000C60000004D0055
01BD0030011D000000C60000004D0055 01BD0030011D000000C60000004D0055 01BD0030011D000000C60000004D0055 01BD0030011D000000C60000004D0055 01BD0030011D000000C60000004D0055 01BD0030011D000000C60000004D0055 01BD0030011D000000C60000004D0055 01BD0030011D000000C60000004D0055 02F001B90223005702D700EE030B0000 0AEF05310098077B0A16062C0B8E0004 1A1B053E0000182811CF078A11130DE8 293C00730000263517D20000115C2191 2CA7000000001F3A1B0000000C7118DA 23990000000003A721AA00000C630000 14070000010900001C8A077B0D090000 08CE004C022600000EA40EAB08690000 048C031502B80000053603B4012701CF 022700DF01700000016800000004010C 01BD0030011D000000C60000004D0055 01BD0030011D000000C60000004D0055 01BD0030011D000000C60000004D0055 01BD0030011D000000C60000004D0055 01BD0030011D000000C60000004D0055 01BD0030011D000000C60000004D0055 01BD0030011D000000C60000004D0055 01BD0030011D000000C60000004D0055 01BD0030011D000000C60000004D0055 01BD0030011D000000C60000004D0055
01BD0030011D000000C60000004D0055 01BD0030011D000000C60000004D0055 01BD0030011D000000C60000004D0055 01BD0030011D000000C60000004D0055 01BD0030011D000000C60000004D0055 01BD0030011D000000C60000004D0055 01BD0030011D000000C60000004D0055 01BD0030011D000000C60000004D0055 04D5022700B601DC03C703BD04CE0000 11A4051500000DE50CB20C020D8C048A 2286042C00002011142606B2105C1676 2E9F00000000268819D600000E141FD1 2BC60000000016621CD700000BFC07C3 21A30490012E0000239F00000E350000 12A20682066B00001B8E08010DFF0000 084405F8030200000A8C0AB307E10000 032001D4016A00000255022501660097 01BD0032011D000000C60000004C0054 01BD0030011D000000C60000004D0055 01BD0030011D000000C60000004D0055 01BD0030011D000000C60000004D0055 01BD0030011D000000C60000004D0055 01BD0030011D000000C60000004D0055 01BD0030011D000000C60000004D0055 01BD0030011D000000C60000004D0055 01BD0030011D000000C60000004D0055 01BD0030011D000000C60000004D0055 01BD0030011D000000C60000004D0055
01BD0030011D000000C60000004D0055 01BD0030011D000000C60000004D0055 01BD0030011D000000C60000004D0055 01BD0030011D000000C60000004D0055 01BD0030011D000000C60000004D0055 01BD0030011D000000C60000004D0055 01BD0030011D000000C60000004D0055 01BD0030011D000000C60000004D0055 06CA003A0000037503F30663033100FB 15860000000011AA09ED12D908330857 240B000000001DAA11330A4F0A141543 2CD2000000001C8A1A10000005AD11BE 290705EB0475096C1F7A000008AC0000 1FF00D140DD900001D1900000B3D0000 10DC0C82077E00001648045F09110000 086209A003AA00000995058504930000 02C801D1017E000001FA00FA00E4006E 01BD0030011D000000C60000004D0055 01BD0030011D000000C60000004D0055 01BD0030011D000000C60000004D0055 01BD0030011D000000C60000004D0055 01BD0030011D000000C60000004D0055 01BD0030011D000000C60000004D0055 01BD0030011D000000C60000004D0055 01BD0030011D000000C60000004D0055 01BD0030011D000000C60000004D0055 01BD0030011D000000C60000004D0055 01BD0030011D000000C60000004D0055
01BD0030011D000000C60000004D0055 01BD0030011D000000C60000004D0055 01BD0030011D000000C60000004D0055 01BD0030011D000000C60000004D0055 01BD0030011D000000C60000004D0055 01BD0030011D000000C60000004D0055 01BD0030011D000000C60000004D0055 01BD0030011D000000C60000004D0055 066900000000043702E205F80000022F 11A00000000011C0062D119600000920 1BB60000040C196D0A800AD700000DBD 22DE00000D49117412140000000003F1 20C5038E0F9E005118770000004C0000 172F06620A6E000017E4000000F40000 0AB106DD069E00000FCA037C01E20000 05D2064703D7000007730204005601B0 026701470174000001BF0042004000B1 01BD0030011D000000C60000004D0055 01BD0030011D000000C60000004D0055 01BD0030011D000000C60000004D0055 01BD0030011D000000C60000004D0055 01BD0030011D000000C60000004D0055 01BD0030011D000000C60000004D0055 01BD0030011D000000C60000004D0055 01BD0030011D000000C60000004D0055 01BD0030011D000000C60000004D0055 01BD0030011D000000C60000004D0055 01BD0030011D000000C60000004D0055
01BD0030011D000000C60000004D0055 01BD0030011D000000C60000004D0055 01BD0030011D000000C60000004D0055 01BD0030011D000000C60000004D0055 01BD0030011D000000C60000004D0055 01BD0030011D000000C60000004D0055 01BD0030011D000000C60000004D0055 01BD0030011D000000C60000004D0055 047100000253034F01760298000001B3 0A34000006A70CE902AD082C00000408 0F7200000E99140D04AC06D200000038 11EB0000129D0D4F0A0B000000000000 0E3E00000EF602EB0E94000000000000 09E8000008EF00000F06000000000000 060303CE05C90000089A018F000001CC 03440258027900000336003A0000027D 01F1007F0142000001160000002900B1 01BD0030011D000000C60000004D0055 01BD0030011D000000C60000004D0055 01BD0030011D000000C60000004D0055 01BD0030011D000000C60000004D0055 01BD0030011D000000C60000004D0055 01BD0030011D000000C60000004D0055 01BD0030011D000000C60000004D0055 01BD0030011D000000C60000004D0055 01BD0030011D000000C60000004D0055 01BD0030011D000000C60000004D0055 01BD0030011D000000C60000004D0055