000E00000000000000000076000D00AA 000E00000000000000000076000D00AA 000E00000000000000000076000D00AA 000E00000000000000000076000D00AA 000E00000000000000000076000D00AA 000E00000000000000000076000D00AA 000E00000000000000000076000D00AA 000E00000000000000000076000D00AA 000E00000000000000000076000D00AA 000E00000000000000000076000D00AA 000E00000000000000000076000D00AA 000E00000000000000000076000D00AA 000E00000000000000000076000D00AA 000E00000000000000000076000D00AA 000E00000000000000000076000D00AA 000E00000000000000000076000D00AA 000E00000000000000000076000D00AA 000E00000000000000000076000D00AA 000E00000000000000000076000D00AA 000E00000000000000000076000D00AA 000E00000000000000000076000D00AA 000E00000000000000000076000D00AA 000E00000000000000000076000D00AA 000E00000000000000000076000D00AA 000E00000000000000000076000D00AA 000E00000000000000000076000D00AA 000E00000000000000000076000D00AA 000E00000000000000000076000D00AA 000E00000000000000000076000D00AA 000E00000000000000000076000D00AA
000E00000000000000000076000D00AA 000E00000000000000000076000D00AA 000E00000000000000000076000D00AA 000E00000000000000000076000D00AA 000E00000000000000000076000D00AA 000E00000000000000000076000D00AA 000E00000000000000000076000D00AA 000E00000000000000000076000D00AA 000E00000000000000000076000D00AA 000E00000000000000000076000D00AA 000E00000000000000000076000D00AA 000E00000000000000000076000D00AA 000E00000000000000000076000D00AA 000E00000000000000000076000D00AA 000E00000000000000000076000D00AA 000E00000000000000000076000D00AA 000E00000000000000000076000D00AA 000E00000000000000000076000D00AA 000E00000000000000000076000D00AA 000E00000000000000000076000D00AA 000E00000000000000000076000D00AA 000E00000000000000000076000D00AA 000E00000000000000000076000D00AA 000E00000000000000000076000D00AA 000E00000000000000000076000D00AA 000E00000000000000000076000D00AA 000E00000000000000000076000D00AA 000E00000000000000000076000D00AA 000E00000000000000000076000D00AA 000E00000000000000000076000D00AA
000E00000000000000000076000D00AA 000E00000000000000000076000D00AA 000E00000000000000000076000D00AA 000E00000000000000000076000D00AA 000E00000000000000000076000D00AA 000E00000000000000000076000D00AA 000E00000000000000000076000D00AA 000E00000000000000000076000D00AA 000E00000000000000000076000D00AA 000E00000000000000000076000D00AA 000E00000000000000000076000D00AA 000E00000000000000000076000D00AA 000E00000000000000000076000D00AA 000E00000000000000000076000D00AA 000E00000000000000000076000D00AA 000E00000000000000000076000D00AA 000E00000000000000000076000D00AA 000E00000000000000000076000D00AA 000E00000000000000000076000D00AA 000E00000000000000000076000D00AA 000E00000000000000000076000D00AA 000E00000000000000000076000D00AA 000E00000000000000000076000D00AA 000E00000000000000000076000D00AA 000E00000000000000000076000D00AA 000E00000000000000000076000D00AA 000E00000000000000000076000D00AA 000E00000000000000000076000D00AA 000E00000000000000000076000D00AA 000E00000000000000000076000D00AA
000E00000000000000000076000D00AA 000E00000000000000000076000D00AA 000E00000000000000000076000D00AA 000E00000000000000000076000D00AA 000E00000000000000000076000D00AA 000E00000000000000000076000D00AA 000E00000000000000000076000D00AA 000E00000000000000000076000D00AA 000E00000000000000000076000D00AA 000E00000000000000000076000D00AA 000E00000000000000000076000D00AA 000E00000000000000000076000D00AA 000E00000000000000000076000D00AA 000E00000000000000000076000D00AA 000E00000000000000000076000D00AA 000E00000000000000000076000D00AA 000E00000000000000000076000D00AA 000E00000000000000000076000D00AA 000E00000000000000000076000D00AA 000E00000000000000000076000D00AA 000E00000000000000000076000D00AA 000E00000000000000000076000D00AA 000E00000000000000000076000D00AA 000E00000000000000000076000D00AA 000E00000000000000000076000D00AA 000E00000000000000000076000D00AA 000E00000000000000000076000D00AA 000E00000000000000000076000D00AA 000E00000000000000000076000D00AA 000E00000000000000000076000D00AA
000E00000000000000000076000D00AA 000E00000000000000000076000D00AA 000E00000000000000000076000D00AA 000E00000000000000000076000D00AA 000E00000000000000000076000D00AA 000E00000000000000000076000D00AA 000E00000000000000000076000D00AA 000E00000000000000000076000D00AA 000E00000000000000000076000D00AA 000E00000000000000000076000D00AA 000E00000000000000000076000D00AA 000E00000000000000000076000D00AA 000E00000000000000000076000D00AA 000E00000000000000000076000D00AA 000E00000000000000000076000D00AA 000E00000000000000000076000D00AA 000E00000000000000000076000D00AA 000E00000000000000000076000D00AA 000E00000000000000000076000D00AA 000E00000000000000000076000D00AA 000E00000000000000000076000D00AA 000E00000000000000000076000D00AA 000E00000000000000000076000D00AA 000E00000000000000000076000D00AA 000E00000000000000000076000D00AA 000E00000000000000000076000D00AA 000E00000000000000000076000D00AA 000E00000000000000000076000D00AA 000E00000000000000000076000D00AA 000E00000000000000000076000D00AA
000E00000000000000000076000D00AA 000E00000000000000000076000D00AA 000E00000000000000000076000D00AA 000E00000000000000000076000D00AA 000E00000000000000000076000D00AA 000E00000000000000000076000D00AA 000E00000000000000000076000D00AA 000E00000000000000000076000D00AA 000E00000000000000000076000D00AA 000E00000000000000000076000D00AA 000E00000000000000000076000D00AA 000E00000000000000000076000D00AA 000E00000000000000000076000D00AA 000E00000000000000000076000D00AA 000E00000000000000000076000D00AA 000E00000000000000000076000D00AA 000E00000000000000000076000D00AA 000E00000000000000000076000D00AA 000E00000000000000000076000D00AA 000E00000000000000000076000D00AA 000E00000000000000000076000D00AA 000E00000000000000000076000D00AA 000E00000000000000000076000D00AA 000E00000000000000000076000D00AA 000E00000000000000000076000D00AA 000E00000000000000000076000D00AA 000E00000000000000000076000D00AA 000E00000000000000000076000D00AA 000E00000000000000000076000D00AA 000E00000000000000000076000D00AA
000E00000000000000000076000D00AA 000E00000000000000000076000D00AA 000E00000000000000000076000D00AA 000E00000000000000000076000D00AA 000E00000000000000000076000D00AA 000E00000000000000000076000D00AA 000E00000000000000000076000D00AA 000E00000000000000000076000D00AA 000E00000000000000000076000D00AA 000E00000000000000000076000D00AA 000E00000000000000000076000D00AA 000E00000000000000000076000D00AA 000E00000000000000000076000D00AA 000E00000000000000000076000D00AA 000E00000000000000000076000D00AA 000E00000000000000000076000D00AA 000E00000000000000000076000D00AA 000E00000000000000000076000D00AA 000E00000000000000000076000D00AA 000E00000000000000000076000D00AA 000E00000000000000000076000D00AA 000E00000000000000000076000D00AA 000E00000000000000000076000D00AA 000E00000000000000000076000D00AA 000E00000000000000000076000D00AA 000E00000000000000000076000D00AA 000E00000000000000000076000D00AA 000E00000000000000000076000D00AA 000E00000000000000000076000D00AA 000E00000000000000000076000D00AA
000E00000000000000000076000D00AA 000E00000000000000000076000D00AA 000E00000000000000000076000D00AA 000E00000000000000000076000D00AA 000E00000000000000000076000D00AA 000E00000000000000000076000D00AA 009502D1007D00E000A4009F00990111 0248077902AC013902EE009B0191013B 03AE092E05B70000056B007700DB0083 03AD09CC0729000005F400B500000053 02E7064805CC000004D4007E00000000 0191040103F4000002EC00A60000003A 00B60148018A00000143007900000060 002E007200800000005E008600000093 000E00000000000000000076000D00AA 000E00000000000000000076000D00AA 000E00000000000000000076000D00AA 000E00000000000000000076000D00AA 000E00000000000000000076000D00AA 000E00000000000000000076000D00AA 000E00000000000000000076000D00AA 000E00000000000000000076000D00AA 000E00000000000000000076000D00AA 000E00000000000000000076000D00AA 000E00000000000000000076000D00AA 000E00000000000000000076000D00AA 000E00000000000000000076000D00AA 000E00000000000000000076000D00AA 000E00000000000000000076000D00AA 000E00000000000000000076000D00AA
000E00000000000000000076000D00AA 000E00000000000000000076000D00AA 000E00000000000000000076000D00AA 000E00000000000000000076000D00AA 000E00000000000000000076000D00AA 000E00000000000000000076000D00AA 017808F9005C02C8003A000F03470269 04E8104D0282029301F30000081902DA 0748141F090E000003BE002F0642028D 080D13A10BED0000039C020F040D0288 07CA11FB0CC500000580028B024401B2 072C0FF20D1E000006AA02CF00000113 05E70DB80B4D000007B501A400000058 04F20C8909F800000750016700000059 04840C25086C0000072A00BA00000061 04840C25086C0000072A00BA00000061 04840C25086C0000072A00BA00000061 04840C25086C0000072A00BA00000061 04840C25086C0000072A00BA00000061 04840C25086C0000072A00BA00000061 04560B310832000006F100AB0000003E 033B06CB06C900000585008100000000 015202EC03E7000002B500A40000000D 003D00A600CE00000089008E0000008A 000E00000000000000000076000D00AA 000E00000000000000000076000D00AA 000E00000000000000000076000D00AA 000E00000000000000000076000D00AA 000E00000000000000000076000D00AA 000E00000000000000000076000D00AA
000E00000000000000000076000D00AA 000E00000000000000000076000D00AA 000E00000000000000000076000D00AA 000E00000000000000000076000D00AA 000E00000000000000000076000D00AA 000E00000000000000000076000D00AA 006D05D2000002760000000007340369 024B0A8A000005FD00000000107B06AC 04F6070A000004B10000035B0E6D092E 05F805E0020A0575000005600CF00A1F 069108D8042C05870000054E0B98092F 08110D4C07C003BE00000499098B0747 089F11BE0A9C0042005603B1072F04F5 08A6127B0BF00000019002DB0532037F 07FF14820AEC000001D001D0058E0332 084014930AD80000020701AF05FA0329 085C14F10B650000025501BD05AA0316 085414CF0B5C0000024D01BB05A30311 0825140B0B1F0000021201B4057A02FA 080714860AEA000001D601CA059D0330 0844141F0B570000029001F8055602EC 07770E190CB70000044603030141013D 0451054C0A4500000351035000000011 00F5018E038B0000010701950000006E 000E00000000000000000076000D00AA 000E00000000000000000076000D00AA 000E00000000000000000076000D00AA 000E00000000000000000076000D00AA 000E00000000000000000076000D00AA 000E00000000000000000076000D00AA
000E00000000000000000076000D00AA 000E00000000000000000076000D00AA 000E00000000000000000076000D00AA 000E00000000000000000076000D00AA 000E00000000000000000076000D00AA 000E00000000000000000076000D00AA 00000016000001CE0000000006CE02E3 00000000000004B9000000280D380787 0189000000000814000005130C9C0A86 01E9000000000826000005FC0C150B2C 01CF000000000904000004B50E700BA3 02830000000009B8000004C7100E0C68 03D6000000000A340000055410760C9A 04E3000000000815000005CE0EA50B3F 0483017200000717000005C10E0F0B4A 04EB02150000083F000004FA0FBB0B45 055702A3000006E6000005900ED20B33 05480249000006C9000005970EB10B21 04E900740000064F000005BD0DE20AC9 05A207380000090A000005FA0F680C1D 084F0B2102EF08690000052610CB0B4F 08C307DC0B4D001301B60715079707C2 0602007F0CB1000001E4078F0000037C 01E50000054F0000001403B900000146 000E00000000000000000076000D00AA 000E00000000000000000076000D00AA 000E00000000000000000076000D00AA 000E00000000000000000076000D00AA 000E00000000000000000076000D00AA 000E00000000000000000076000D00AA
000E00000000000000000076000D00AA 000E00000000000000000076000D00AA 000E00000000000000000076000D00AA 000E00000000000000000076000D00AA 000E00000000000000000076000D00AA 000E00000000000000000076000D00AA 000000000000006E0000001E01A8012C 00000000000001490000008F03CA02A8 000300000000025E00000233036103E1 007A0000000002FA0000023903AF0403 0000000000000309000001D0059004A0 000900000000048E0000026A0822068D 0032000000000666000003180B0C08D7 00F300000000076F0000051F0A4E099A 0158000000000759000005780A1309F7 00E40000000007EA000004600C330A3B 0183000000000812000005AD0B8A0AAA 0185000000000801000005C60B440A92 020600000000086D000006650A460A66 03F303B200000A4D000003EF0FE90C43 06AE0974000008B90000024814CC0C49 078A011D0831012200C30848097309E0 04CF00000AB1000000A709DA0000063D 01EF000003F601150000044000000266 000E00000000000000000076000D00AA 000E00000000000000000076000D00AA 000E00000000000000000076000D00AA 000E00000000000000000076000D00AA 000E00000000000000000076000D00AA 000E00000000000000000076000D00AA
000E00000000000000000076000D00AA 000E00000000000000000076000D00AA 000E00000000000000000076000D00AA 000E00000000000000000076000D00AA 000E00000000000000000076000D00AA 000E00000000000000000076000D00AA 000E00000000000000000076000D00AA 000E00000000000000000076000D00AA 000E00000000000000000076000D00AA 000E00000000000000000076000D00AA 000E00000000000000000076000D00AA 000900000000001A0000005F007400CA 000000000000008F0000004A01E20172 00000000000000DF0020014801560211 006A00000000017E0000013101C20222 000000000000012E000000FD02A30273 00360000000001F2000001BF028E030B 005900000000021E000201D402800315 020807220096044700E3017604AF0440 05440F03000004E9000000000F3B061A 05970C180000006D0000009E110C0883 05A8000008680080007609BD051E08F6 0374000007A501CA000608C10000059A 00F20000016A017100220241000001E1 000E00000000000000000076000D00AA 000E00000000000000000076000D00AA 000E00000000000000000076000D00AA 000E00000000000000000076000D00AA 000E00000000000000000076000D00AA 000E00000000000000000076000D00AA
000E00000000000000000076000D00AA 000E00000000000000000076000D00AA 000E00000000000000000076000D00AA 000E00000000000000000076000D00AA 000E00000000000000000076000D00AA 000E00000000000000000076000D00AA 000E00000000000000000076000D00AA 000E00000000000000000076000D00AA 000E00000000000000000076000D00AA 000E00000000000000000076000D00AA 000E00000000000000000076000D00AA 000E00000000000000000076000D00AA 000E00000000000000000076000D00AA 000E00000000000000000076000D00AA 000E00000000000000000076000D00AA 000E00000000000000000076000D00AA 000E00000000000000000076000D00AA 00DF04B9008701780099007C015C0175 03570E8A0000039400000000098B03FA 061412EA0000033500000000123206D9 06CA064E059C000000CA05A90B310849 04D500000ABE000001AF0A840000074A 02450000049F01C1006405120000035B 002E000000070041000A00B7000500DB 000E00000000000000000076000D00AA 000E00000000000000000076000D00AA 000E00000000000000000076000D00AA 000E00000000000000000076000D00AA 000E00000000000000000076000D00AA 000E00000000000000000076000D00AA
000E00000000000000000076000D00AA 000E00000000000000000076000D00AA 000E00000000000000000076000D00AA 000E00000000000000000076000D00AA 000E00000000000000000076000D00AA 000E00000000000000000076000D00AA 000E00000000000000000076000D00AA 000E00000000000000000076000D00AA 000E00000000000000000076000D00AA 000E00000000000000000076000D00AA 000E00000000000000000076000D00AA 000E00000000000000000076000D00AA 000E00000000000000000076000D00AA 000E00000000000000000076000D00AA 000E00000000000000000076000D00AA 000E00000000000000000076000D00AA 006C01F90049009D00720093006F00F2 02590B74005B02F5007B0000052802D6 056911E500000381000000000FD50579 05E20BE7000000000000011110CE08B2 058C0000081100EE0000099305A1092B 03D9000007FA0231000008ED00000572 00FB000001AD00FA0000025D000001AC 000E00000000000000000076000D00AA 000E00000000000000000076000D00AA 000E00000000000000000076000D00AA 000E00000000000000000076000D00AA 000E00000000000000000076000D00AA 000E00000000000000000076000D00AA 000E00000000000000000076000D00AA
000E00000000000000000076000D00AA 000E00000000000000000076000D00AA 000E00000000000000000076000D00AA 000E00000000000000000076000D00AA 000E00000000000000000076000D00AA 000E00000000000000000076000D00AA 000E00000000000000000076000D00AA 000E00000000000000000076000D00AA 000E00000000000000000076000D00AA 000E00000000000000000076000D00AA 000E00000000000000000076000D00AA 000E00000000000000000076000D00AA 000E00000000000000000076000D00AA 000E00000000000000000076000D00AA 000E00000000000000000076000D00AA 000E00000000000000000076000D00AA 00E60586000201B700000022022A01C6 038E0F2400000449000000000BBB0498 05F210D0000002EC0000000012630783 064F025E04F60000000006B30ABA08E8 03EB0000085000F1007D0AB400840828 0213000003900360005305520000042C 005E0000005400A2001D011400000126 000E00000000000000000076000D00AA 000E00000000000000000076000D00AA 000E00000000000000000076000D00AA 000E00000000000000000076000D00AA 000E00000000000000000076000D00AA 000E00000000000000000076000D00AA 000E00000000000000000076000D00AA
000E00000000000000000076000D00AA 000E00000000000000000076000D00AA 000E00000000000000000076000D00AA 000E00000000000000000076000D00AA 000E00000000000000000076000D00AA 000E00000000000000000076000D00AA 000E00000000000000000076000D00AA 000E00000000000000000076000D00AA 000E00000000000000000076000D00AA 000E00000000000000000076000D00AA 000E00000000000000000076000D00AA 000E00000000000000000076000D00AA 000E00000000000000000076000D00AA 000E00000000000000000076000D00AA 000E00000000000000000076000D00AA 001A004B00000017000F0079001B00B4 016D091E0000032E0000000005A80321 048210000000056100000000112E067C 05DA090A0015012200000241103F090F 055600000948007D00C80A61034808AE 034B0000072101FA000007E8000004D0 0087000000A200DC001D01680000015A 000E00000000000000000076000D00AA 000E00000000000000000076000D00AA 000E00000000000000000076000D00AA 000E00000000000000000076000D00AA 000E00000000000000000076000D00AA 000E00000000000000000076000D00AA 000E00000000000000000076000D00AA 000E00000000000000000076000D00AA
000E00000000000000000076000D00AA 000E00000000000000000076000D00AA 000E00000000000000000076000D00AA 000E00000000000000000076000D00AA 000E00000000000000000076000D00AA 000E00000000000000000076000D00AA 000E00000000000000000076000D00AA 000E00000000000000000076000D00AA 000E00000000000000000076000D00AA 000E00000000000000000076000D00AA 000E00000000000000000076000D00AA 000E00000000000000000076000D00AA 000E00000000000000000076000D00AA 000E00000000000000000076000D00AA 000E00000000000000000076000D00AA 00D8046200B0015C00CE009C010F0156 03330D90000003AA0000000009E70419 05421006000002E2000000001216073C 05EB024C053D0000008A065709C10868 03FE00000961006B00A00A4C00000702 01D1000003210274000B0420000002F2 001600000000001100020087000900B6 000E00000000000000000076000D00AA 000E00000000000000000076000D00AA 000E00000000000000000076000D00AA 000E00000000000000000076000D00AA 000E00000000000000000076000D00AA 000E00000000000000000076000D00AA 000E00000000000000000076000D00AA 000E00000000000000000076000D00AA
000E00000000000000000076000D00AA 000E00000000000000000076000D00AA 000E00000000000000000076000D00AA 000E00000000000000000076000D00AA 000E00000000000000000076000D00AA 000E00000000000000000076000D00AA 000E00000000000000000076000D00AA 000E00000000000000000076000D00AA 000E00000000000000000076000D00AA 000E00000000000000000076000D00AA 000E00000000000000000076000D00AA 000E00000000000000000076000D00AA 000E00000000000000000076000D00AA 000E00000000000000000076000D00AA 00870283006A00C90093009A008A0106 02950BC500FD02BB00FA000004D902AA 057811E4000002A7000000000EA504EA 05AE0B3800B300000000012B0EF80793 04FB000008D9000000B709C3030C0809 0335000006FF01DC000007B7000004A7 00770000007E00D6002701470000014E 000E00000000000000000076000D00AA 000E00000000000000000076000D00AA 000E00000000000000000076000D00AA 000E00000000000000000076000D00AA 000E00000000000000000076000D00AA 000E00000000000000000076000D00AA 000E00000000000000000076000D00AA 000E00000000000000000076000D00AA 000E00000000000000000076000D00AA
000E00000000000000000076000D00AA 000E00000000000000000076000D00AA 000E00000000000000000076000D00AA 000E00000000000000000076000D00AA 000E00000000000000000076000D00AA 000E00000000000000000076000D00AA 000E00000000000000000076000D00AA 000E00000000000000000076000D00AA 000E00000000000000000076000D00AA 000E00000000000000000076000D00AA 000E00000000000000000076000D00AA 000E00000000000000000076000D00AA 000E00000000000000000076000D00AA 002B00A1000000310023007E002C00C0 01AF090E00C8028F00B5001703270242 04CE10F60000033F000000000C220442 064710F70000008B0000000010CD0712 05FC01FA05FE00000000071708DF086B 03E70000091100BF00920A1E000006E6 01CC0000031B0259000503FE000002CF 000E00000000000000000076000D00AA 000E00000000000000000076000D00AA 000E00000000000000000076000D00AA 000E00000000000000000076000D00AA 000E00000000000000000076000D00AA 000E00000000000000000076000D00AA 000E00000000000000000076000D00AA 000E00000000000000000076000D00AA 000E00000000000000000076000D00AA 000E00000000000000000076000D00AA
000E00000000000000000076000D00AA 000E00000000000000000076000D00AA 000E00000000000000000076000D00AA 000E00000000000000000076000D00AA 000E00000000000000000076000D00AA 000E00000000000000000076000D00AA 000E00000000000000000076000D00AA 000E00000000000000000076000D00AA 000E00000000000000000076000D00AA 000E00000000000000000076000D00AA 000E00000000000000000076000D00AA 000E00000000000000000076000D00AA 001100170000000700030075001100AD 015E073301350232014600A501C801C6 04440F77002C02BC00D9000009460384 062D1323000001250000000010DE065D 0653075402FA0000000004620DA80912 04E7000008C200FF005B0A6102AA0876 02F30000062C024F0000074600000491 00750000007B00D2002601430000014B 000E00000000000000000076000D00AA 000E00000000000000000076000D00AA 000E00000000000000000076000D00AA 000E00000000000000000076000D00AA 000E00000000000000000076000D00AA 000E00000000000000000076000D00AA 000E00000000000000000076000D00AA 000E00000000000000000076000D00AA 000E00000000000000000076000D00AA 000E00000000000000000076000D00AA
000E00000000000000000076000D00AA 000E00000000000000000076000D00AA 000E00000000000000000076000D00AA 000E00000000000000000076000D00AA 000E00000000000000000076000D00AA 000E00000000000000000076000D00AA 000E00000000000000000076000D00AA 000E00000000000000000076000D00AA 000E00000000000000000076000D00AA 000E00000000000000000076000D00AA 000E00000000000000000076000D00AA 000E00000000000000000076000D00AA 0048015000130067003A007F005C00DD 02250CB20000039A0000000006AA0387 05D312C10000048200000000112905A5 06980C0D02040000000002610F5F0881 057A0000067400EB0000090F071B0971 035B0000072802880000097A000006B7 01830000027702390028036500000295 000E00000000000000000076000D00AA 000E00000000000000000076000D00AA 000E00000000000000000076000D00AA 000E00000000000000000076000D00AA 000E00000000000000000076000D00AA 000E00000000000000000076000D00AA 000E00000000000000000076000D00AA 000E00000000000000000076000D00AA 000E00000000000000000076000D00AA 000E00000000000000000076000D00AA 000E00000000000000000076000D00AA
000E00000000000000000076000D00AA 000E00000000000000000076000D00AA 000E00000000000000000076000D00AA 000E00000000000000000076000D00AA 000E00000000000000000076000D00AA 000E00000000000000000076000D00AA 000E00000000000000000076000D00AA 000E00000000000000000076000D00AA 000E00000000000000000076000D00AA 000E00000000000000000076000D00AA 000E00000000000000000076000D00AA 003E010800100052003B0084003F00CE 01D808A5017C024D0194006B027E01F2 04A2104D00000327000000000D3F04BA 05690ED9000000E700000000125F0835 05F8000004EC013F000007F20A2209FA 03C200000731028800000A6601120805 0214000003A6030800120533000003D8 004C000000390081001700F30000010C 000E00000000000000000076000D00AA 000E00000000000000000076000D00AA 000E00000000000000000076000D00AA 000E00000000000000000076000D00AA 000E00000000000000000076000D00AA 000E00000000000000000076000D00AA 000E00000000000000000076000D00AA 000E00000000000000000076000D00AA 000E00000000000000000076000D00AA 000E00000000000000000076000D00AA 000E00000000000000000076000D00AA
000E00000000000000000076000D00AA 000E00000000000000000076000D00AA 000E00000000000000000076000D00AA 000E00000000000000000076000D00AA 000E00000000000000000076000D00AA 000E00000000000000000076000D00AA 000E00000000000000000076000D00AA 000E00000000000000000076000D00AA 000E00000000000000000076000D00AA 000E00000000000000000076000D00AA 000E00000000000000000076000D00AA 00E40505006C018F007900690192018D 037C0EC70000034A0000000008760396 066413C8000002C700000000114A0623 0699086303B30000001F044E0D39085B 04EC000009470000014E0A950211088F 02A20000056C0290008506DA000004EA 009B000000BB011B0031019000000184 000E00000000000000000076000D00AA 000E00000000000000000076000D00AA 000E00000000000000000076000D00AA 000E00000000000000000076000D00AA 000E00000000000000000076000D00AA 000E00000000000000000076000D00AA 000E00000000000000000076000D00AA 000E00000000000000000076000D00AA 000E00000000000000000076000D00AA 000E00000000000000000076000D00AA 000E00000000000000000076000D00AA 000E00000000000000000076000D00AA
000E00000000000000000076000D00AA 000E00000000000000000076000D00AA 000E00000000000000000076000D00AA 000E00000000000000000076000D00AA 000E00000000000000000076000D00AA 000E00000000000000000076000D00AA 000E00000000000000000076000D00AA 000E00000000000000000076000D00AA 000E00000000000000000076000D00AA 000E00000000000000000076000D00AA 00700209004D00A200770093007200F4 02550B46000F02F3004F0000056902E5 055411D300000393000000000FC80596 0737126A015F021200000160124009B4 084702CF0A9E001802CC08C707EB08EF 053800000C760000021C09B30000055E 017200000330003A0069030D000001EF 000E00000000000200000079000A00AB 000E00000000000000000076000D00AA 000E00000000000000000076000D00AA 000E00000000000000000076000D00AA 000E00000000000000000076000D00AA 000E00000000000000000076000D00AA 000E00000000000000000076000D00AA 000E00000000000000000076000D00AA 000E00000000000000000076000D00AA 000E00000000000000000076000D00AA 000E00000000000000000076000D00AA 000E00000000000000000076000D00AA 000E00000000000000000076000D00AA
000E00000000000000000076000D00AA 000E00000000000000000076000D00AA 000E00000000000000000076000D00AA 000E00000000000000000076000D00AA 000E00000000000000000076000D00AA 000E00000000000000000076000D00AA 000E00000000000000000076000D00AA 000E00000000000000000076000D00AA 000E00000000000000000076000D00AA 000E00000000000000000076000D00AA 00D005260000019900000017022101BC 036A0ED600000464000000000BAE049F 064B12C7000003DB0000000012DC07E7 08810DE6047A029E000004EC10E90B66 080601640BC0004902C10995062508DD 053100000C2E0000015309090000046B 00F50000023B0000001C02200000013D 000E00000000000000000076000D00AA 000E00000000000000000076000D00AA 000E00000000000000000076000D00AA 000E00000000000000000076000D00AA 000E00000000000000000076000D00AA 000E00000000000000000076000D00AA 000E00000000000000000076000D00AA 000E00000000000000000076000D00AA 000E00000000000000000076000D00AA 000E00000000000000000076000D00AA 000E00000000000000000076000D00AA 000E00000000000000000076000D00AA 000E00000000000000000076000D00AA
000E00000000000000000076000D00AA 000E00000000000000000076000D00AA 000E00000000000000000076000D00AA 000E00000000000000000076000D00AA 000E00000000000000000076000D00AA 000E00000000000000000076000D00AA 000E00000000000000000076000D00AA 000E00000000000000000076000D00AA 000E00000000000000000076000D00AA 000E00000000000000000076000D00AA 00C705EC000002510000000004DC02AE 03630EAC0000063A0000000010A406CE 06850E5C000004F700000176139F0A63 077F02D00421023B000006BC0E620B8F 04E300000786023F00000A1C04B70952 039F0000070302F700000834000004EF 00BB0000013C008A000001DA00000150 000E00000000000000000076000D00AA 000E00000000000000000076000D00AA 000E00000000000000000076000D00AA 000E00000000000000000076000D00AA 000E00000000000000000076000D00AA 000E00000000000000000076000D00AA 000E00000000000000000076000D00AA 000E00000000000000000076000D00AA 000E00000000000000000076000D00AA 000E00000000000000000076000D00AA 000E00000000000000000076000D00AA 000E00000000000000000076000D00AA 000E00000000000000000076000D00AA
000E00000000000000000076000D00AA 000E00000000000000000076000D00AA 000E00000000000000000076000D00AA 000E00000000000000000076000D00AA 000E00000000000000000076000D00AA 000E00000000000000000076000D00AA 000E00000000000000000076000D00AA 000E00000000000000000076000D00AA 000E00000000000000000076000D00AA 000E00000000000000000076000D00AA 0000019000000171000000000583028E 000303A90000052B000000000FB80726 01F5000000000866000002E911BD0B27 03B90000000007F20000092A0A380AF1 02A70000041A04DF0000098101D70805 019B00000261036800930444001A03D1 0056000000490092001A01050000011B 000E00000000000000000076000D00AA 000E00000000000000000076000D00AA 000E00000000000000000076000D00AA 000E00000000000000000076000D00AA 000E00000000000000000076000D00AA 000E00000000000000000076000D00AA 000E00000000000000000076000D00AA 000E00000000000000000076000D00AA 000E00000000000000000076000D00AA 000E00000000000000000076000D00AA 000E00000000000000000076000D00AA 000E00000000000000000076000D00AA 000E00000000000000000076000D00AA
000E00000000000000000076000D00AA 000E00000000000000000076000D00AA 000E00000000000000000076000D00AA 000E00000000000000000076000D00AA 000E00000000000000000076000D00AA 000E00000000000000000076000D00AA 000E00000000000000000076000D00AA 000E00000000000000000076000D00AA 000E00000000000000000076000D00AA 000E00000000000000000076000D00AA 00000000000000C70000000002F40195 00000000000002A50000006707F804A3 0000000000000531000003B508AA07E4 01090000008805820139061403380725 0179000002120326009F039600020345 002E000000070041000A00B7000500DB 000E00000000000000000076000D00AA 000E00000000000000000076000D00AA 000E00000000000000000076000D00AA 000E00000000000000000076000D00AA 000E00000000000000000076000D00AA 000E00000000000000000076000D00AA 000E00000000000000000076000D00AA 000E00000000000000000076000D00AA 000E00000000000000000076000D00AA 000E00000000000000000076000D00AA 000E00000000000000000076000D00AA 000E00000000000000000076000D00AA 000E00000000000000000076000D00AA 000E00000000000000000076000D00AA
000E00000000000000000076000D00AA 000E00000000000000000076000D00AA 000E00000000000000000076000D00AA 000E00000000000000000076000D00AA 000E00000000000000000076000D00AA 000E00000000000000000076000D00AA 000E00000000000000000076000D00AA 000E00000000000000000076000D00AA 000E00000000000000000076000D00AA 000E00000000000000000076000D00AA 000E00000000000000000076000D00AA 000E00000000000000000076000D00AA 000E00000000000000000076000D00AA 000E00000000000000000076000D00AA 000E00000000000000000076000D00AA 000E00000000000000000076000D00AA 000E00000000000000000076000D00AA 000E00000000000000000076000D00AA 000E00000000000000000076000D00AA 000E00000000000000000076000D00AA 000E00000000000000000076000D00AA 000E00000000000000000076000D00AA 000E00000000000000000076000D00AA 000E00000000000000000076000D00AA 000E00000000000000000076000D00AA 000E00000000000000000076000D00AA 000E00000000000000000076000D00AA 000E00000000000000000076000D00AA 000E00000000000000000076000D00AA 000E00000000000000000076000D00AA