00E9
00D9
0015
FD9C
FD96
FDF1
00DA
0056
01CD
0193
00E3
013F
FF7D
00CD
006C
0139
0131
0139
FFE5
FFF0
FFCC
0127
00B5
00FF
FFC0
FF03
003A
FE6C
FF58
FFA6
FF18
0036
FE71
00D0
0040
010F
FFDB
0105
FFFF
005F
00E5
0154
007B
01D0
018C
021C
0183
00B6
FF59
00F4
FF80
FF07
FFF6
FFBD
FE07
FDB2
FE6B
001D
0160
002C
FF01
FF25
FF74
0050
FF58
FF10
01DA
022B
021F
0100
00CE
0024
00C7
FFEC
0149
FF4C
000D
FF9E
0271
0160
0169
FF49
FF64
000C
FF2B
FF57
FF62
00F7
01C5
0189
FEFF
FF06
FEFC
00DC
FF86
002B
FFF0
0040
0122
016B
011E
00D6
FF91
002C
FF82
FFCD
014B
014B
FF91
FF15
FF29
FFA2
FF80
0057
0167
01F2
01AB
FFF2
0166
FFA5
FFEB
FFD6
0047
01AB
0255
009A
FE80
FEB9
FF04
FFD2
015A
003E
FE3E
FE75
FECC
FEC2
003E
FE7C
0206
01AF
01B5
017D
0026
006E
00A6
FFB8
0091
0060
01FF
00DF
00E5
0203
01F8
FDA8
FEC1
FDD1
018A
0158
FFCD
FFD9
003A
0069
FEAB
FF9E
FEF5
0005
FF81
FFDE
0179
00A8
0115
004E
020C
017C
00DE
0195
01BB
FF0E
FF3E
FF8B
01E4
020B
00A7
FFFB
002A
FF3B
00B3
FF77
00C9
00BB
FF07
FF45
FFDB
00C6
00FF
02C9
02DB
02F3
00B4
00B0
00A9
005D
00BC
0195
00DF
0126
FFF6
FFAA
0090
0046
0059
00B2
00A3
00B3
0031
0059
006B
002B
00CF
017D
FF7A
0063
0111
00CD
FFC9
FEDE
00C3
0130
0000
01CA
009E
00E2
FFCF
0086
0008
FF14
0118
010E
0063
FF65
FF48
000F
FF7F
006F
0034
FE28
FF1E
0070
003D
0063
0114
FF2B
00AE
002A
FF2B
00DB
000A
FF94
0113
0005
FEF8
0085
FE58
FFC2
00A9
FFFE
FFFB
00A2
FE97
FFB8
003C
FFF6
FFC4
FF24
003E
0179
01D9
002A
FFE1
0098
005E
FFB5
FF79
0123
003A
FFAF
0024
00BF
FF21
FE9E
0084
0244
FEDC
0085
FFD2
00A8
0067
00B3
0084
0113
0123
011F
FF3D
FF5A
00A3
007B
FF1F
001E
00DC
FFA1
00B7
FF4E
0025
001F
00F0
FF33
0050
00DB
FEE6
FFED
FFAA
FFFA
FFDF
FF44
004E
00C6
00A2
FF41
0048
FF3B
FFC0
012B
FF35
0009
0098
FFB3
0057
FF61
FFF2
004A
004B
FF9D
0114
FFFE
FFD5
00D5
FFD0
0054
017F
0060
0084
00BE
FF2A
FF3F
003A
011F
0010
006B
FF55
0059
00AC
0113
008F
FDDD
004F
00AF
FED4
0069
0147
013D
FFA4
FF81
01AD
FFCA
FF8C
0006
FFD0
FFEB
FF51
FF41
0093
FF6C
0014
FF87
FF4E
00FB
00A7
00D0
015E
0198
0168
0017
FF53
FF0E
FF47
00EF
FDE9
FFBD
FF4B
005D
FF7B
012B
FE79
FF38
FE7E
FE1A
0101
FFFC
00AB
00AB
FFDA
0160
0041
FF87
005A
00C7
0022
0013
0049
FF8B
011A
FF4A
FF0C
FFEF
FFFF
FFB4
FF53
FF59
FFFE
016F
FDA7
002B
FEE0
008D
FEE9
FE24
0088
FF04
0013
FFBE
0111
00B8
FFB4
0118
00D3
FFFC
00BD
010D
0077
FE65
0007
0025
FE62
0119
FEBD
00FF
FFD3
FF79
FFB2
0229
004A
015D
FF69
FFFD
FF48
FF3A
FFE5
0017
FF5C
0017
005D
0122
0124
FFA1
007E
01B5
0057
FFEA
0132
FF7A
000F
00BB
FFF8
FF5C
FF86
FFA3
FF73
0024
FFEA
FFBE
00CA
FFAA
FF86
0100
FE62
FF77
002D
FFEE
FF6A
FF0D
FFDE
011C
00B3
0050
00F9
0023
0057
0113
0006
011C
FF0A
00A2
0027
FFC9
FF8F
FFC8
001F
00F2
0019
FF49
FF4D
004A
000E
0144
FFBE
0113
0044
00FE
0029
013E
FF5B
FF60
FF98
FEFD
0079
004D
0090
00D6
00E6
01B6
015A
FFD9
0109
0065
FFA6
FF98
003E
00AD
FFE7
00F5
00C8
009D
0114
FF75
0088
FE91
0047
0040
FEF0
002C
00C7
0113
FFE3
FE10
0014
00C2
004C
002E
0042
00B8
FFD1
0288
FFCD
00C4
0060
0041
00D0
004B
FFDA
00EC
018E
00ED
0073
002C
0036
FFCD
00E1
004C
0027
00FB
0152
0086
0031
006E
00B7
FE70
FE80
FD16
FFDF
FFCE
00E9
00C5
00A0
01F2
0013
FF5B
0068
FF56
00F7
FF99
FFA4
0129
00BC
FE90
FFBA
FFB5
FFEB
FFD8
FF74
FFA2
FFF9
FE99
FF03
FF16
FF88
FFA6
FECC
00BD
0094
FE79
00F3
0008
003C
007B
FF5A
0227
005C
006C
FFB1
00DA
FFF3
FF0C
FFFC
00A3
FE91
00E9
FEE5
0169
00AC
0093
00AE
0278
0086
0007
0022
0061
FF6F
00DB
FFBC
0028
FFD4
FED6
0167
FFE6
FFDC
0076
0063
00F8
00FF
FFC8
00B3
FFFC
00D2
012C
002A
FF4B
0178
FE6D
FFDC
FF9A
007C
FFA8
001F
FDCF
FFFA
FE2B
0058
FFD9
FF8B
0101
FF4C
FDF3
0020
FFE1
00A2
00F2
0124
0086
00C2
020B
0182
FFD5
0029
00FF
FF93
FF5E
FF6D
FFDF
FE92
007B
FF2B
0065
FFC8
FFEA
FF62
02A2
010B
FFA9
008A
00B2
0050
0080
0155
FD85
FF6A
FF4E
001C
00FD
FFF5
FF92
0093
00C4
00DB
009D
001B
FF7E
FFEF
005E
0028
01D9
010D
FFEC
0049
0065
0033
FF3E
0084
00AE
FFE4
FE8A
017E
00BF
0050
005D
00CF
FF4E
FFB7
004F
0058
0072
FFFE
00C1
0092
003F
00FD
0072
006A
00FC
0049
00DC
FFA4
00E2
00DE
FFD6
FF8B
FFE4
00FB
0198
FFEC
0116
019A
0077
001B
000D
00A3
0017
00F0
0044
FF11
0023
FFDE
0073
FEC3
0087
FF9D
FFBB
FE88
0206
FF3A
FF9E
00DB
00A1
FE57
00A6
0022
FFF0
0007
0068
FF26
00EB
FFE6
FFEC
FEDF
0038
FE87
FFA7
00D0
FFAE
00C1
FFE2
0008
FEEE
009A
FF55
0074
FFE0
00DB
FF8E
006F
FEDA
FF32
0025
00D7
002F
FF8E
005B
FFFF
FF9C
002F
0137
009B
0089
FF7A
0030
FFEE
FF6A
0075
FFED
FF2C
0001
0120
00A4
001A
FFD5
0081
FF8C
006F
000E
FEA7
00D5
007B
00A1
FFA4
FFE3
019D
FFAE
00FC
00C6
0094
FF1A
FFC2
FF71
FF22
009C
0118
0014
FF00
004C
0088
FFAB
014D
FFA0
FF82
FF3F
006F
FFD1
0002
FFD4
0054
FF5E
007F
FFD2
014E
FFF9
FEF2
00ED
0098
FEC0
00A8
004C
00F3
FFF1
FEC2
00CB
FF4D
000E
FF7D
001A
0066
FF82
FEBB
008A
FEC5
FEC8
0185
00F2
008B
FFD0
FFE1
FF4D
FF38
FF95
0071
013F
0050
00AB
005C
FFDC
FFF1
0001
00E4
0025
FFBC
FEDE
003B
FF5B
0001
00DE
0032
FF7F
FF70
0268
0194
0061
019F
FF75
003E
FF4E
FF97
004E
000A
FF31
0060
FF2C
FFC6
FFF0
00CB
0072
FFAE
005B
00A9
00FD
FF84
0089
0079
0033
FF30
00EB
009C
FF79
01B5
00EA
0083
FEE4
FFEA
00D4
FFC4
FF27
015D
00F5
000B
FF14
FFC9
0065
FFCC
0173
FE8D
FFDD
FF4D
00B3
01C0
00B8
0118
0078
FF07
FF73
00BA
FFDF
FF59
00C8
0102
00D6
FFAC
FFC6
FFE8
0173
0059
009D
00BA
00FB
0071
00BB
FFAE
FDCE
0072
000D
000F
FF94
01B1
FEF5
002F
0051
FF28
FF1C
009D
FEF0
FFB7
0105
0004
0160
FFF3
00D3
FFFF
0050
01CA
00AE
FF61
FE64
FFCC
00F7
FF32
FF8A
FFAC
FFF5
0098
FFA0
FF86
FFE8
FFDE
FFDA
FE0C
005A
0035
FFE9
FFFC
FF7A
0098
00B2
001C
0081
FFA5
FE44
006D
0025
FEEC
0156
007A
004E
00D5
0007
FF7A
FF87
001E
0020
FEF2
008F
FF06
FF8E
0104
FF7D
FEDE
0081
00AE
FF74
00D8
FF8F
FE9E
00A5
0143
FF5F
FF40
005F
FFDE
FFA0
FEFA
007B
FED3
FFCA
00D6
FF5B
0020
FE3F
0005
FFD8
005E
0134
0037
0055
01DF
FEC8
0052
002E
FF2D
FFBC
FDC7
FFEB
0020
006E
FFD9
FFCA
002D
00A8
FFC0
00B4
0012
FE3B
0142
009D
FDB5
010A
00E2
FF8F
009C
00A5
01D1
0070
013E
00AE
FEF9
0060
FFB6
FF27
006B
0050
FF7E
FF39
00B1
FFE5
0150
0068
FF24
00A1
0108
FF9E
FFD7
0052
0000
FFA0
0080
FFFB
00E8
FF7F
0083
005A
00E9
FF3E
FF7D
00D7
0051
00EB
FFD7
003C
FF88
002A
FF57
0116
010D
0033
FE90
FF4B
FE86
009E
FF86
00E1
0062
FF78
FFFE
00B9
FEFE
FDB9
FFE3
007A
FFB1
FFD1
0157
012E
00A7
01B1
FFEA
0045
FFC1
0092
00F9
00BB
FEE8
FF17
0146
FFBD
00BC
004D
FFA8
FF2B
0109
0002
FF31
FFCC
00C5
00AB
0115
FF38
FF0E
0185
00F3
FEE4
FF5F
014E
01D7
009E
FFCD
FE51
0200
FF4D
006D
0080
00AE
0055
00F7
FECD
FFA5
016E
0053
00AF
FEAC
FFE8
FF66
00B8
0020
00D5
FF1C
0047
005A
00BF
0014
FE68
FF8E
FFB2
FF78
FF75
0172
FFBB
00A4
FF36
00A2
FF81
FFF1
012B
00CC
00B3
FF2E
FF32
FFC6
00CF
FFA0
0068
FFBD
009A
0106
002B
FF21
005E
FF25
0022
012D
FFA3
FF8C
FFCA
00B7
FF45
FEA1
00FD
00E3
0014
FE7A
FE74
FFF6
FF25
0065
FEED
016F
009D
FF2A
00F4
FE6A
FFF9
019F
00B5
FF41
FFE6
009C
FF25
FFC5
0106
003D
0161
004F
0053
FF76
FF29
FFAB
0089
006C
0003
004B
0085
FF97
0026
012C
FF82
0009
0124
01BA
00B4
FF31
0148
004F
002D
FF96
FFFE
002A
0044
FFCE
008E
FFFA
00DC
FEFD
FFDD
FFFA
FFD2
FF3A
FFF4
0063
003B
002D
FFB8
FFB4
007C
FEAA
FDD6
0134
00FD
FFA2
FF7F
001A
FF93
FFC4
FE64
000A
00F9
00D0
FFE3
0131
002C
FF49
FEF0
0075
0049
FF93
013E
FF14
FF4E
00D4
FF29
016C
FEA6
FFB8
FF5C
FF73
FEDE
0053
0088
FFBB
FFBF
FF56
0078
007C
006F
008E
0069
00DB
001A
FFD0
FFF0
0061
FF80
00CC
0101
0155
007C
FFA4
FF57
FF44
00EE
FFFD
0009
0178
00EA
FF38
0010
002A
0047
00BB
0011
FF9E
FF62
FFB9
FF67
009D
0029
008E
FF3C
0039
0079
FFDC
0090
00E6
008A
FF66
FFF7
009E
FEB1
0104
FFEA
FE82
FFBC
0148
0016
FFA4
FF9C
0095
0010
FF45
FFF6
0095
FF6C
0090
FFDE
0055
FFCE
FF20
00AB
FF4D
0197
FFC5
FFEF
FF00
FFCE
FFEB
00B6
FFF9
011C
00E1
FFF3
FF3A
01C8
0078
0066
005B
FFCE
00E7
FF63
0059
FECC
FFB0
00CC
FF45
FF88
00CB
FFE2
FF81
FF9C
000D
0002
009D
0088
005F
0038
008F
FF38
00AC
003C
00E4
0049
00AA
FF3E
FFBC
FEF0
FFFF
006E
013F
FF74
FF47
00A0
00C1
FFC1
FF88
001F
008D
00BA
00CE
00EF
00A6
001F
FF6D
00AC
007D
0138
0028
0162
FF45
004A
FF9B
016F
0041
FF31
00A5
FEDE
0071
00A4
00CE
0023
FFE7
0059
FEEB
FF04
0078
00EE
FF78
FFB7
FF6C
0009
FF68
FFB6
0058
0048
FFFF
00C0
011D
003D
0036
006B
FF4D
FFF9
00CB
FF24
FFBC
FFAD
00EB
FEBD
0118
0106
00CA
00D5
018D
FF98
00BB
FF38
FF94
0084
0054
FF5A
0093
00AA
FFC6
FF63
FFE6
00DB
00AC
0174
FF42
00DC
FEE7
FF2D
FF1D
FF86
0064
FF27
FFA9
007C
0020
FF20
FFE4
0097
00C4
0003
FFE8
0034
0119
FFBC
00CB
0108
0101
0046
006F
00BF
FFA1
FFDD
0090
0066
0113
FFFA
00B6
FF92
0047
00C6
004D
0120
0088
0093
00B0
0022
002C
FDC0
0047
0009
00E5
008D
0007
FF3B
0005
FFB2
00B6
00C3
FFA1
FFAA
002A
00B0
009A
0083
FFD8
0022
003C
002F
FFE3
011B
FFFD
FF95
006C
FFAA
FEC8
FEFA
FFA4
FF9E
00EB
FEAA
FF56
FF38
004B
003F
009D
FF8B
FF8A
00A6
FF9F
0011
0059
001C
FF3D
0084
FF5E
FF95
FFAC
009B
00A0
FF1B
0164
FF35
0016
00D6
FFD0
0007
FFA0
FF3C
0124
004C
001A
FEDB
0076
0056
FFF5
000B
FFC9
00BA
FF72
003C
FFFF
FFA7
FFEC
FEB5
005A
00A5
FF75
004C
FF35
0064
000E
0150
FED2
FFFC
FFC0
0096
FF3E
FFCD
FF70
FEA7
019D
0063
006F
FE8A
001D
0008
FF0A
014C
FF85
0015
FFEB
FE28
0086
010B
FF7A
0101
FF85
0001
00DF
0033
0023
00DD
FFC7
003C
0039
FF95
00D5
0010
0006
0069
0001
0037
00A2
FF8D
00A9
FE90
FF33
FF99
FF21
0013
006B
FEA7
0017
0168
FF12
0081
0074
FE50
0163
FFE4
0084
FF5E
FEDE
FE74
FF66
001C
FF79
003A
FE41
FFC1
0060
0087
FFA6
00AA
FEA5
FFA9
008E
003E
FF33
00CC
FF35
003E
0105
FEFF
00AD
011B
004E
0106
FFE4
0034
FEE6
FFBB
FF23
FFB2
FE9C
FF95
FFDA
FFD4
00E0
00F3
FFF0
011D
FFAE
0077
00D6
FF30
00D4
FF91
FFDE
FDC6
FEB0
0002
004D
0116
FEDD
FF72
FF09
0142
0092
00B5
FFA2
FF60
00EE
FF8F
0047
FF1B
FFE5
00C2
FF1F
006A
0111
0044
FF7B
FFD2
FF38
0028
FF9A
0108
FEDE
00D7
0093
FFDB
0076
FF8F
FF08
001A
0024
FF35
000C
00DC
00E5
008A
00EC
0145
FEDC
0014
0025
FE9B
FFD6
FF98
00DE
FED4
FF77
FFD3
003B
01A9
0061
000A
FF6E
0006
0099
0095
FF9F
FF11
FF69
FF81
0133
FFDD
FED2
FF13
0036
0196
00EA
0133
0047
FE6C
FF51
010E
FFB2
0051
FFD0
004D
008B
00CF
FF42
FFBC
FED4
0063
0106
FEE2
FF38
0030
0055
00F0
00B0
FF9B
FFD7
0104
FF56
FFA5
FF50
00A0
011E
0057
013A
0149
005D
009A
FFB7
0055
00DE
001F
FF1A
0069
0065
FE6B
008C
FF38
0053
005F
FF7D
00BF
004F
FF2E
0096
FF51
0185
FFAE
FFCA
FF75
FFC2
0002
FF4E
0044
FECC
FFC5
FFED
FFAD
FFAE
0073
FF3E
FFD6
FFA1
002D
003C
FFA0
FFE8
004E
00AA
00AF
FEE4
FF88
FF42
00A0
FF45
006F
FE9B
0088
001E
00AF
0020
00A1
FF66
0102
FF64
00F8
FF40
006C
005C
FF84
FFD7
FFB3
0102
FFE2
FF58
FF79
FFB1
FFE5
FEF6
00E0
FF4F
FFCF
FF12
005C
002D
00D3
0052
0024
FFB4
FF9E
FFCC
001C
FFC1
0000
0018
00BD
FFF8
0098
FF8F
FF64
FFF4
006D
FFE1
FF6D
FF2C
0003
FF61
0044
0045
0035
0122
FFCA
FE46
FF98
FFD7
00AE
FF44
FFE9
0069
0073
FF6D
FF9B
FF2F
FFAB
FFEC
009C
005E
0047
FF64
FF61
0062
FF97
FFC2
0041
00A1
FF90
0020
FFDD
FF52
FF31
0094
FFF6
0012
FFFA
0023
FF74
FEFA
0075
FF40
0045
FFA3
FF4B
00B0
0006
FF93
004A
0086
FF91
0048
FF58
00BD
FF36
00D7
FFCD
FFBE
0038
FFEC
001C
0125
FFA1
FFF1
001F
00B2
00DA
0078
FFD5
FEF9
FFBD
000D
00B5
0136
FFE2
0128
0015
0052
FE7F
0045
001C
FFF1
008B
00B4
0067
00C7
FFAE
FFEB
000D
002F
FF60
FFB7
0058
FFCF
0019
01A3
FF97
0017
FE4C
FFEB
FF0F
FFDE
011D
0039
FF68
0000
FEC2
FFF7
FE60
FF70
005B
FF0E
0012
009D
004B
FFD6
0039
014C
FF6D
FE78
FED9
FF59
0008
FE7E
00EB
0046
FF42
0075
0013
FFC1
0070
005E
FF87
FFE6
FF46
014E
FF7C
FFDE
0089
000F
FF1C
FFCA
0024
0071
005B
0020
011D
0039
FEF7
FF12
FF5C
FFD6
FF75
0021
009E
0092
009B
00B0
FFAC
FF6B
002B
0050
FF6A
0034
FFDE
002D
004E
FFEA
FFEB
005E
00DD
00F6
0004
FF71
FF8A
FFAE
FF72
0025
FFFE
FF25
0081
FFC8
FF88
FFC9
005E
000B
FFC8
0092
FFDC
00C5
FE8D
FF91
FFD4
FFDE
FFC4
FF91
FF24
0057
FF8B
0001
FFC3
FF73
FFA8
FF10
FF07
FFDD
FFA6
00D9
FF9B
FF31
0073
FF23
007C
005B
FF90
FF40
00C3
FF8E
00B9
004B
FFAD
008F
FFBD
0027
0048
0084
0064
0025
003A
0117
FFD0
FE41
008F
0080
FFA0
0187
008A
0097
0142
018C
FE96
0069
0058
0040
FFEE
0117
FFAD
FF85
FFB5
003B
0058
002F
FF64
00F0
FF2E
FF67
FFD7
0003
FFA5
FFFC
FF43
FF31
FF9D
0058
FFD3
0069
FFE0
FFF9
0031
FFE8
00E7
006D
014E
FFB8
00B2
00A1
FF17
0068
0050
003A
00C9
0011
002A
014F
0022
004C
FF64
FF89
FFCA
0079
0042
FFE3
FE63
00BE
FF3F
FE7A
0036
FFF4
FFE9
0074
0048
00AE
FFFA
FF97
FF20
FFAF
0044
FF69
FFE3
FFFA
000D
0039
FF16
FFF6
000F
FF59
FF4D
00EF
FF7F
FF96
FFA5
0002
FFA0
FFBC
003B
0094
0008
001A
FF3A
000E
FF88
001A
00AD
0012
FFD0
FFF7
FF93
FFD8
0066
FEE4
0087
FFC8
0046
FEF9
0040
FEC8
FEF0
FF5E
00C4
FEF0
0015
FE99
FFF7
FFE2
FF8B
0163
00C2
FFDA
0048
0136
FF6F
0086
001E
0065
FFF9
013C
005F
0038
0065
FF9A
FFDB
0026
FF6F
FFD4
0026
00B8
FF63
FFF4
FFE2
00B0
0021
00A7
FFA6
FFE7
FF6E
FFBC
00A4
008C
FF4F
FF0C
FFE4
FF5B
0000
0037
00FE
FFA8
FEB1
FF5F
0175
0032
FFCD
FFDC
FFE2
0011
0005
0079
FF9D
0012
FF84
0057
0018
FFC8
FFAD
FFAE
FFF6
FF3E
FFC0
0007
FF6F
FEC7
000F
0098
0050
FF9C
002A
0012
0005
00AF
FF87
FFDD
FFB0
01C0
0087
001B
00AD
FFD4
FF17
FF24
000F
001A
FF53
FFF7
0022
FEA6
FFCC
FF8E
001F
FFE0
0002
0048
0030
FFFC
FFE2
00D4
0055
003B
005C
FFF9
FFCF
FFBE
FFBA
00C1
FFAB
FF83
0006
FFBC
0047
FF81
FF94
000B
010B
007B
0085
00D8
FFE2
008D
FF7F
00D8
FF04
FFE2
00C4
FFCE
FFBB
0002
003B
FF84
FFC3
0051
002D
001E
FF73
FF7E
00E3
FF39
FFBD
00A0
0032
008D
FFD8
0122
009D
00AB
FFF7
00A7
FFEB
FFD6
FF97
00B9
00D4
00E6
FF8F
00E0
FF8F
0050
FFD7
FFE2
FFA7
FF64
00AB
0021
FF97
001D
008D
008E
0051
0098
0063
00E8
FF2D
0030
007E
FFB8
00A8
000E
0039
015A
FF23
0057
0032
FFF9
FFFF
0041
FFDC
FFC0
FFF2
FFBD
0012
FFC7
014D
FD20
0010
FFC5
FFD2
FF8C
0031
FFA6
FF57
0015
0005
00B8
FF49
FFEF
002E
FF49
FFFA
FFB5
FFC5
FFBC
FF94
FFB5
0000
FFF7
FFFB
006E
0043
0064
FFAF
00E8
FF0A
FFFD
0051
FF61
0000
001E
0077
0043
FF4C
FFC4
FFA8
FE96
001F
FFFE
0027
FF77
FFE8
00F0
00BA
0015
00C1
0103
FFC0
FF3F
0045
FF78
FFA4
0079
FFD4
FF86
FEFC
00A1
0045
FFEE
0044
FFD4
007A
0002
0071
0068
FFD2
00C8
00B4
FEDE
0048
FF6B
003D
0071
FFCA
FFF0
00A5
0041
001B
FEC5
0043
FF91
FFDE
0019
FFFD
0045
0021
009D
FFEB
FFA4
0128
0080
002B
0039
005A
FFEE
FF42
0037
FF7C
FFAE
001F
FF4A
0072
00C2
FF72
FFC5
0020
FF5B
004B
0013
FF84
FF81
FFF6
FF9D
0022
FFDF
FF8E
FF0D
FF13
FF62
FFAE
FFC9
FF9F
FFE2
FF9C
FFA7
007F
FF54
FF87
00B1
FFC4
0052
FFD2
FF68
00EE
FFC5
FE08
0002
0013
FF97
00DF
FFE9
FFB6
FFE8
FEEC
009D
FF82
0050
0075
000A
FEE7
FFB3
FF39
FFE5
00D5
00B5
0011
FEF0
FF4E
00A6
00F0
FFB5
008C
0064
0156
FFA9
008A
FF91
FF83
FF75
00E3
000D
008B
FF95
0018
0015
0069
FEA8
00C2
FF3D
FF95
FF36
FFED
FF1A
FFDE
FF6E
00A1
FFDB
FF67
FFFE
002E
FFF7
FFBA
00AA
002B
00BA
FE59
0013
FF8B
009D
FFC2
FFCC
008F
FFAD
FFCC
0090
FFEF
FEBE
FF76
0042
FF82
0065
FF79
FF71
007F
00C8
FFD0
0049
FF9E
FF80
002F
FF2B
0042
0044
00DB
FFE9
0052
0039
FF81
00A8
FF29
0072
0053
FEEB
FFEB
010A
FF83
FFED
FFF4
00D9
00BC
00EC
003A
FF4C
00AD
0011
FEA6
FFEF
FF65
00B0
FF9C
FFAE
0043
008C
FF1B
006C
003B
0104
0027
00C9
FF6C
0067
0028
FF91
FFF0
FFDE
FFFD
006C
FF45
0058
00B8
0047
001E
FF8B
0007
00C5
FFD1
0025
0057
0131
0097
007E
00A5
FEA4
005C
002B
FF7D
FFA7
0001
005E
FFD4
003A
0140
0080
0003
0056
FFF3
FF91
00A1
0037
FF05
FFED
FF1A
0015
FF93
FF31
FF71
001D
FFFD
FFE8
FFBB
0080
00D6
000F
00AA
00C1
FFEE
0046
FFDD
FF4F
000A
FF3B
FFF4
FEBE
FDA5
FF87
007D
00D8
FFCF
FFC5
FFCE
FF36
019D
FF15
005D
FFDB
006E
FEF3
FFDF
0039
FFB7
0045
001E
FECC
0060
FF46
FFF0
FF11
003C
FFC7
FF8B
0028
007D
FFC8
000E
0017
FF64
0222
FFD9
FF2B
0051
0001
00CD
FF8C
0053
FFC9
FFE3
FF97
0022
006B
0053
0028
FFF9
0077
FF52
FF8C
0045
FF81
0093
FF38
FF43
009C
00A4
0021
FF9E
0144
FFFD
0054
FEF0
003A
FFAD
0137
001A
0020
005A
0138
FF24
006F
0095
005E
0028
FF9B
0007
FEA9
0038
FFB6
FFD9
003A
007D
FF6E
00D9
005F
000B
0021
0019
FFB3
FFDB
FFC4
FFC6
00A5
FF7F
004D
003E
0022
FFF7
000C
0025
0039
FFE6
FFC4
0091
0001
FFB8
0042
FE2A
FFCF
FF96
00ED
0095
014F
00C8
0029
0073
FFDD
013C
006C
FFAC
00BA
FF7A
FFDA
00A4
FFDE
0007
0029
005D
00D8
FFC1
0046
000D
FFEB
006F
FFDE
0004
003F
FFBB
FF25
003C
0087
0062
FFD0
0080
FF75
FECD
FF3C
003F
FF86
FFE9
0112
006E
FF0E
FE8F
FF9B
0007
FFC8
FF39
00D4
00DB
0087
FF3F
FFFA
003B
00EC
0055
FFAC
0062
FFE4
FF68
0032
0024
FFFB
0029
FF99
0013
FFC6
FF7E
FF7F
00BB
FFE2
0047
FF8B
000F
FFA7
FF29
FFD2
0079
FFCF
00F1
FFA3
0017
FF41
0055
FFDC
FFA7
00AB
0068
FFC0
FFD4
FFC3
FFB5
FFF0
FF0E
FF3C
001B
001E
FFA7
009E
FF04
005B
FFA7
FFCD
0096
FF4E
0027
FFE1
FF72
0031
FFD5
FF98
0025
FF34
FFFE
FFBD
000B
003B
FFF9
FF82
0060
FF88
FF4F
FF59
FFBD
FF94
009B
0161
003B
009A
00AE
0021
0172
FF2E
FFE8
0045
001A
FF7C
FE52
FFD2
004F
FF6A
0038
FF1D
008D
003E
FF4B
FFD8
0048
006E
0020
0039
FFD5
FFAB
FF11
004B
003A
0073
0092
0071
FFB0
00E0
FFDF
FFB5
FFCC
FF63
00E1
0028
0024
FF28
FF7A
FF4E
009B
001D
FF56
0071
FFBC
FEDC
FF91
00E0
002C
FF79
FF14
0002
0008
FF77
FF86
004B
003C
008B
FF8B
00F0
0032
FF47
FFB0
0025
003A
0155
00DE
0054
FFD9
003E
009C
FF86
FFB1
0111
0050
008A
FF59
FFB5
FF8A
FEA5
0068
FFD2
0022
0035
0008
FF2C
0023
FF24
0054
FF74
006A
001A
00EF
0026
0021
0095
FFDA
0035
0058
0047
0039
FFC6
00F4
FFA9
FFBD
FF1F
FFF7
FF9E
0054
FE5B
0088
0055
FF9E
0094
0061
FF40
00B2
0033
FE82
FE9E
0020
FFA5
0080
0039
FF76
FF5E
FFE5
0024
004E
0045
FFA9
0037
FFF6
00DE
0048
0077
0058
FFF9
FFF5
0059
0012
FF76
0076
FFD6
FEF7
FFF0
FFCD
FFAE
FFDB
000C
FFA6
FFEF
004A
0078
FF4F
00C1
0001
FFBE
FED4
FEFD
FFEE
004F
FFDA
0032
FFF2
0041
FF6A
0017
0052
0005
FFFB
FFB0
00DA
FF94
0063
00C0
0082
FFD6
FEF9
FFDF
FFB0
FEE4
000B
FF6A
FFC0
0074
0086
FF3C
0113
FFC6
00A9
FF96
FFA1
005F
FFB7
00C6
0119
004F
FFD8
005E
FF17
0016
FF54
00F7
0071
006E
0094
00C5
FF9E
FF8A
FE6C
00AA
FFB6
0118
0019
00FF
FFA7
0022
FF41
009C
FFAA
0057
FFEC
0081
008E
0062
FFCB
0013
FFE6
01CB
FF85
FFC2
0050
00AF
0042
FFFD
0104
006C
FFB2
0005
FF3C
FF32
0095
0090
FFE7
0003
FF3A
00DB
0009
0008
0055
FF6E
0034
0129
FF4A
006E
007A
FFA5
0110
FEFA
FFDC
FFE4
005C
00BF
FFEB
0072
FF41
000A
FFB6
0049
0056
FF46
00DD
FF38
0077
FFF1
0039
006C
00E9
0134
FF8E
0049
FFB6
FFF9
FEC5
0031
00A7
005E
FF37
FF94
0000
FF0F
FF9C
0055
001E
FF07
0074
0036
005B
009A
FFC7
0169
FF64
00CB
FFB0
FFC0
FF3D
008C
FF71
FE82
005F
007B
001E
FF62
001D
0212
FE3D
0023
0047
FFE8
006A
0050
FF2B
004E
FFC1
007A
FF74
FFD9
FF59
0041
0077
FF7A
FF70
002E
FFAD
FF39
FF3C
0038
005E
FFC4
FFA3
00F3
FF8C
003A
0018
0089
FF83
0055
FF90
001F
FF72
00A8
FFB6
0044
0072
FF16
FE6A
FFDF
00A4
003D
FFDB
FF58
0070
FF2F
0112
0035
FFC3
FFE9
0065
FFBD
00AA
00C2
FFAD
0064
FEF5
FEB0
00AF
FF95
00A9
FFFD
0068
003D
FF85
FFA0
0030
FF43
FFD6
FF1A
FF06
FFF2
FFF4
FF46
0033
FFB8
FFE9
FF90
FFA0
FF83
0027
0074
005C
0005
00A0
FF7C
0033
003D
0018
FFE2
0004
0033
FFD0
00B0
FF92
005C
00F0
0013
FF74
0030
007E
FFC5
0083
FF33
0017
FFAB
001F
FFF5
00BF
0063
FFE9
0066
004D
0125
FF6C
FFFD
FFE7
0037
0029
0050
0035
FF04
00CE
000C
001F
FFDC
0004
0010
0037
FF71
0041
0041
FFEF
0067
005D
FF02
004E
FEF7
0065
FFCC
FF8A
FF34
FFE3
FFCB
FFD5
0025
009A
001D
004A
00B7
00B0
FFA9
001F
0007
FF4B
FFA5
FF96
008B
0107
FF7C
0048
FFB3
0039
0021
0011
FF38
011A
FFDF
FF80
FF63
FFB6
FF61
FFCB
0018
0015
FE8E
001C
004D
0002
00FB
FFC2
FF7B
004F
00CE
004D
FF9F
003B
0089
FF4A
FFFF
0074
FF89
007E
FFA0
0116
001B
FFC5
FFCC
FF84
FF89
FFA5
FF91
00AF
002D
FFB5
0039
0027
FF46
0020
FF69
0037
0035
FFB9
FF8E
0035
FEEE
006C
FF6A
010D
FFFD
0080
0028
0089
0009
FF55
001C
FF5A
FF69
FF47
00AC
0027
FE8B
FF68
FF06
0042
0025
FFC3
FEE4
0033
FFA9
FF5A
FF33
000F
005A
FFBF
00A1
FF65
00A5
FF18
FFF4
FFD1
0005
001D
002D
FF78
FFA4
FFA6
0088
002F
0021
FF9A
0002
0094
FF78
0059
FF45
FFA3
FFEC
0044
009D
FF1B
FEDA
FF54
00F8
FFF7
FF80
0037
FFD1
FEB5
FFF6
006F
FF38
00A0
006A
FF8A
FFD1
FF01
0030
00BB
FF48
00B4
0157
FF82
FFC8
004D
0030
001F
FF5C
000C
FFC5
0019
0041
0031
00A6
00B3
0038
FF83
0037
FEBF
006D
0161
FE7F
0070
FF87
001C
FFEC
0077
FFAC
FF32
FFAC
0078
FE79
007D
0000
00B4
FFDA
FF91
0027
FFD9
FF11
0043
0062
FFE7
0096
FFD2
FF7A
000B
0027
0003
FFD8
FF43
0006
008D
FFAD
00AD
0021
000F
FEE8
0001
002A
FF8E
000E
FF90
FFC8
FFE8
FFEF
FF9E
FF6C
0088
0069
FF35
FE90
0017
007D
FF72
FFD4
FFB3
0028
008C
0048
0065
0078
007B
0001
FFAA
FFF5
FF8F
00C4
0041
0019
0040
FFDB
0006
FFA1
FFEB
FFE9
FFC1
FFD8
00B6
005E
FFEF
0013
FF78
FFBA
FFC5
FF66
FF52
FFBB
003B
001A
FEF2
FFAA
003F
0031
FF62
0089
0087
00AA
0023
00F9
0007
0076
0061
FF5B
FF22
FFFC
FFB9
0022
FFBA
FF07
000E
003D
FF5E
FF48
FF3D
00BD
0011
002A
FFC1
FF1E
002A
007F
FF51
FF22
0018
FF65
FFD1
FFA4
FFCD
0058
00E1
00B4
FF3E
0009
FF59
005F
005A
FFD0
FFD1
FFCB
FFDD
0082
008B
FFA6
0098
0046
FFE6
FE7C
0046
FF9E
0095
FF36
FEC6
FF9D
FF8D
FFC2
0039
00B1
00CA
0083
011B
002F
0052
FF8F
FFEF