008D
00D6
00D7
0021
FF7B
FE81
FFA9
0044
00B5
0118
0003
0059
0099
FFF5
00AF
001B
000C
00A4
0095
FE3A
FF31
FE74
002C
008B
0093
01CC
0180
0061
00DF
FF39
FF42
002E
0111
003A
FF26
00C0
0214
015E
FF94
FFE5
FF5D
FFAA
FF1F
0014
00B6
0111
0188
018E
FEC0
FF2B
FEE5
FFCC
00C9
FF97
FFD8
FF08
011C
001E
FF8E
FF73
0020
0006
FF55
0079
0014
0014
003E
000A
0034
FE50
00D2
000C
FED0
FE81
FF55
0064
FE26
FEB3
0084
0076
001F
00C1
00DB
00F9
FF7F
FEE6
FF3D
002D
FEF0
FF75
00C0
FF7D
FFEA
FF42
0081
00AB
0087
00D0
FF7D
018D
00D3
0109
011F
FE53
FF97
00B5
FE39
0035
00EB
00BA
00E4
0027
0184
007D
0085
0105
0190
FF2F
FF6D
FEC7
FFE9
0108
FFC3
FFD3
FFD6
0073
FF36
FF4D
00C4
0014
0057
FF01
FF09
FF20
FFFB
FF92
FFBC
FF33
003F
006D
0128
0086
00EE
FF8F
00AF
FFAE
00C4
0182
0077
FF8D
006A
018F
FF45
FEB4
0007
0066
FF6A
FF52
0042
FFCC
FEFD
FF26
FF7C
FD9D
FEF3
FF3B
000C
FE5F
0032
FF47
FFBC
FFB3
FFFF
FF38
0187
0016
FE97
FF63
FD95
FF64
FEF6
FFF3
0087
0125
01DB
0205
00BB
FF6A
0146
FF9C
FFEF
002A
0022
FF6C
0020
008B
FF89
FFAC
FFBB
FE00
FF10
0122
0050
017A
FF7B
FFE4
FFE0
FE9F
FF6A
FF4A
FFAD
FF75
0131
0057
0067
0049
FFD5
00B9
FF56
FFEA
000C
011D
00F1
00C1
FFEB
0046
0185
01F4
0074
FF59
FF96
FFDB
FF38
00BC
FF8B
0068
011C
FEC8
00B1
FFE8
FF2F
0127
FF27
FDFA
FFBC
FED8
00F8
010D
0061
FFF1
FF31
0015
FF79
0046
0053
0031
FFE6
0183
016B
FF56
015D
FD83
FF2D
00C0
FF3D
FFEF
0176
FF57
0050
00B0
FFE9
FFAF
000B
0036
0234
00CD
FFB8
FF9E
FFE9
003F
009D
0069
0183
FF80
00F1
00C7
0034
0015
FE7C
FFDA
00DE
0042
FF97
FEDE
FF44
FF31
FF7D
FFCF
FFE9
0180
FFB4
FD04
009E
FFFD
0061
FFD5
0053
FED6
0088
FF15
FEBE
FFD6
FF42
0096
00AD
0011
FEFE
0046
00F6
FFAD
FEB6
004F
FF99
FED3
FF6B
0103
FFFF
0036
0070
FEA7
FFCE
006B
FF96
0044
FFA8
0093
FE5C
FEF4
FAC6
0217
012B
00FD
FF78
FF3F
002D
00F4
FFA7
002E
0093
009E
00C1
0020
0001
0106
FFB3
00C1
00C1
FF75
FEE0
FE7D
FFA5
00B5
FF65
0040
0009
002C
FF95
004F
0015
FF9E
00C6
004E
FE45
FF9C
00F2
0010
FFF2
FD9C
FEB4
FFE1
01C7
FFD1
FFB8
FFFC
000B
FEBB
FF59
FF82
FECC
FE79
FFF2
0098
0041
0036
FAE8
FF39
0167
FDC1
016C
FF89
0044
0072
0269
00B4
FF99
FF35
0023
00B3
0014
FE7E
00E7
001A
FE7C
009A
001C
FE86
FE81
0018
FEE4
FE9A
FF05
FFEE
001D
FF60
FEC8
0166
FFBE
01BC
FFE9
0129
00A4
0038
00E3
002A
FD46
FF86
010A
FEF6
00C3
009D
FF86
0015
01F6
FFE6
FFA9
005D
FFD2
0045
FFEE
0194
FDE4
FF36
00BD
FD56
000A
01D7
00BC
FFCC
0039
FDAF
00EE
00AC
FF46
0027
002C
0030
00D0
FC0C
FEC9
FFEC
00B7
0055
01BB
FF5A
FEAE
00C7
0096
0186
0059
00CF
0197
0099
FB7A
0011
00DE
FFAF
0082
FFF8
FF97
FFC7
00E6
FE29
FF9A
0157
0183
0004
FFAF
FF8C
017F
FDC1
0101
FF25
000A
004F
0173
FF79
FEA0
0190
007C
01E5
FED6
FF99
01F9
0073
007C
FFC0
0145
FF30
009E
012F
FFA8
FF8E
01B6
FE27
0067
00FE
FFA1
FFC1
FFF3
FF6B
FB5A
FF89
01B4
FF86
FF69
FF5A
0026
FF5F
FFD9
FF58
FFF1
0128
00AF
FFA2
0035
FFB7
01D0
FE73
006E
00EB
FF41
FFE7
FF84
004D
010F
FEB6
FFF6
01EA
FFE5
0088
FE98
FEEA
0108
FED1
FF23
000B
0006
FEE5
00A2
01C4
FFB3
FF73
00B7
FFFF
FE78
FFBB
FF57
FEC5
0044
FFB0
FEF2
FF45
FF9C
FF94
FFAB
0005
FAAB
01E1
0088
FDF2
0126
000D
009F
00C3
023E
FD41
FF75
FEE3
0039
005E
FDA2
008C
FF7D
FEDF
FF91
FDFA
FF20
FE9F
00F4
FF83
FEE5
01B4
00B2
001B
0053
008F
FE6E
0086
003F
FDE8
FFC5
FFF0
00E5
0043
006E
FFE7
0101
FFD8
FEFB
0189
FEB1
FF0F
00E1
FF21
FF37
FF66
0018
FFFD
FFFF
FF16
FE3E
00A2
00EF
00F0
001F
01A9
FFAE
005E
FF70
005D
007A
FF44
FFE0
FFD9
FF7A
FF1B
004B
006F
0156
FD79
FEF9
FFB6
015E
00BC
FEB0
FF92
007E
FFA9
FF41
FE85
FEE0
FE37
0075
FF49
01C6
FFB5
FF4E
00A0
007A
00EC
FF45
FF4A
0052
FE6C
FFAE
FF0D
000D
0100
FFA8
FF5D
FF99
FF1F
0006
013C
0185
00A6
FF93
0020
0050
0198
FFD8
FEA1
FFC8
FEF3
0122
00EE
00BD
FF80
FFBB
004D
FFEA
0099
002F
FFA8
00B4
FEFD
009E
012D
FE9F
000A
FF7C
FF56
FE24
02C2
0107
FF86
FF92
FF65
0096
FFEF
FF19
0085
FF4F
FF86
FFC6
0041
FF5F
FF26
FEB8
0075
0116
FF82
013E
0110
012F
FEB7
FFFF
FFCC
00E8
FF1B
FEF7
009D
012E
FFCE
0076
FF03
0132
0006
FF8B
FEE5
FEB9
011B
0079
FCF9
FF15
FE6C
01E4
FF89
0008
0156
00CC
003E
0089
FEA6
0043
010E
0094
FF16
FF2B
FE98
FFF8
011D
FFBE
FF86
008E
FFC6
0084
FF4A
FFBA
003D
FED8
004E
