008D
00D6
00D7
0021
FF7B
FE81
FFA9
0044
00B5
0118
0003
0059
0099
FFF5
00AF
001B
000C
00A4
0095
FE3A
FF31
FE74
002C
008B
0093
01CC
0180
0061
00DF
FF39
FF42
002E
0111
003A
FF26
00C0
0214
015E
FF94
FFE5
FF5D
FFAA
FF1F
0014
00B6
0111
0188
018E
FEC0
FF2B
FEE5
FFCC
00C9
FF97
FFD8
FF08
011C
001E
FF8E
FF73
0020
0006
FF55
0079
0014
0014
003E
000A
0034
FE50
00D2
000C
FED0
FE81
FF55
0064
FE26
FEB3
0084
0076
001F
00C1
00DB
00F9
FF7F
FEE6
FF3D
002D
FEF0
FF75
00C0
FF7D
FFEA
FF42
0081
00AB
0087
00D0
FF7D
018D
00D3
0109
011F
FE53
FF97
00B5
FE39
0035
00EB
00BA
00E4
0027
0184
007D
0085
0105
0190
FF2F
FF6D
FEC7
FFE9
0108
FFC3
FFD3
FFD6
0073
FF36
FF4D
00C4
0014
0057
FF01
FF09
FF20
FFFB
FF92
FFBC
FF33
003F
006D
0128
0086
00EE
FF8F
00AF
FFAE
00C4
0182
0077
FF8D
006A
018F
FF45
FEB4
0007
0066
FF6A
FF52
0042
FFCC
FEFD
FF26
FF7C
FD9D
FEF3
FF3B
000C
FE5F
0032
FF47
FFBC
FFB3
FFFF
FF38
0187
0016
FE97
FF63
FD95
FF64
FEF6
FFF3
0087
0125
01DB
0205
00BB
FF6A
0146
FF9C
FFEF
002A
0022
FF6C
0020
008B
FF89
FFAC
FFBB
FE00
FF10
0122
0050
017A
FF7B
FFE4
FFE0
FE9F
FF6A
FF4A
FFAD
FF75
0131
0057
0067
0049
FFD5
00B9
FF56
FFEA
000C
011D
00F1
00C1
FFEB
0046
0185
01F4
0074
FF59
FF96
FFDB
FF38
00BC
FF8B
0068
011C
FEC8
00B1
FFE8
FF2F
0127
FF27
FDFA
FFBC
FED8
00F8
010D
0061
FFF1
FF31
0015
FF79
0046
0053
0031
FFE6
0183
016B
FF56
015D
FD83
FF2D
00C0
FF3D
FFEF
0176
FF57
0050
00B0
FFE9
FFAF
000B
0036
0234
00CD
FFB8
FF9E
FFE9
003F
009D
0069
0183
FF80
00F1
00C7
0034
0015
FE7C
FFDA
00DE
0042
FF97
FEDE
FF44
FF31
FF7D
FFCF
FFE9
0180
FFB4
FD04
009E
FFFD
0061
FFD5
0053
FED6
0088
FF15
FEBE
FFD6
FF42
0096
00AD
0011
FEFE
0046
00F6
FFAD
FEB6
004F
FF99
FED3
FF6B
0103
FFFF
0036
0070
FEA7
FFCE
006B
FF96
0044
FFA8
0093
FE5C
FEF4
FAC6
0217
012B
00FD
FF78
FF3F
002D
00F4
FFA7
002E
0093
009E
00C1
0020
0001
0106
FFB3
00C1
00C1
FF75
FEE0
FE7D
FFA5
00B5
FF65
0040
0009
002C
FF95
004F
0015
FF9E
00C6
004E
FE45
FF9C
00F2
0010
FFF2
FD9C
FEB4
FFE1
01C7
FFD1
FFB8
FFFC
000B
FEBB
FF59
FF82
FECC
FE79
FFF2
0098
0041
0036
FAE8
FF39
0167
FDC1
016C
FF89
0044
0072
0269
00B4
FF99
FF35
0023
00B3
0014
FE7E
00E7
001A
FE7C
009A
001C
FE86
FE81
0018
FEE4
FE9A
FF05
FFEE
001D
FF60
FEC8
0166
FFBE
01BC
FFE9
0129
00A4
0038
00E3
002A
FD46
FF86
010A
FEF6
00C3
009D
FF86
0015
01F6
FFE6
FFA9
005D
FFD2
0045
FFEE
0194
FDE4
FF36
00BD
FD56
000A
01D7
00BC
FFCC
0039
FDAF
00EE
00AC
FF46
0027
002C
0030
00D0
FC0C
FEC9
FFEC
00B7
0055
01BB
FF5A
FEAE
00C7
0096
0186
0059
00CF
0197
0099
FB7A
0011
00DE
FFAF
0082
FFF8
FF97
FFC7
00E6
FE29
FF9A
0157
0183
0004
FFAF
FF8C
017F
FDC1
0101
FF25
000A
004F
0173
FF79
FEA0
0190
007C
01E5
FED6
FF99
01F9
0073
007C
FFC0
0145
FF30
009E
012F
FFA8
FF8E
01B6
FE27
0067
00FE
FFA1
FFC1
FFF3
FF6B
FB5A
FF89
01B4
FF86
FF69
FF5A
0026
FF5F
FFD9
FF58
FFF1
0128
00AF
FFA2
0035
FFB7
01D0
FE73
006E
00EB
FF41
FFE7
FF84
004D
010F
FEB6
FFF6
01EA
FFE5
0088
FE98
FEEA
0108
FED1
FF23
000B
0006
FEE5
00A2
01C4
FFB3
FF73
00B7
FFFF
FE78
FFBB
FF57
FEC5
0044
FFB0
FEF2
FF45
FF9C
FF94
FFAB
0005
FAAB
01E1
0088
FDF2
0126
000D
009F
00C3
023E
FD41
FF75
FEE3
0039
005E
FDA2
008C
FF7D
FEDF
FF91
FDFA
FF20
FE9F
00F4
FF83
FEE5
01B4
00B2
001B
0053
008F
FE6E
0086
003F
FDE8
FFC5
FFF0
00E5
0043
006E
FFE7
0101
FFD8
FEFB
0189
FEB1
FF0F
00E1
FF21
FF37
FF66
0018
FFFD
FFFF
FF16
FE3E
00A2
00EF
00F0
001F
01A9
FFAE
005E
FF70
005D
007A
FF44
FFE0
FFD9
FF7A
FF1B
004B
006F
0156
FD79
FEF9
FFB6
015E
00BC
FEB0
FF92
007E
FFA9
FF41
FE85
FEE0
FE37
0075
FF49
01C6
FFB5
FF4E
00A0
007A
00EC
FF45
FF4A
0052
FE6C
FFAE
FF0D
000D
0100
FFA8
FF5D
FF99
FF1F
0006
013C
0185
00A6
FF93
0020
0050
0198
FFD8
FEA1
FFC8
FEF3
0122
00EE
00BD
FF80
FFBB
004D
FFEA
0099
002F
FFA8
00B4
FEFD
009E
012D
FE9F
000A
FF7C
FF56
FE24
02C2
0107
FF86
FF92
FF65
0096
FFEF
FF19
0085
FF4F
FF86
FFC6
0041
FF5F
FF26
FEB8
0075
0116
FF82
013E
0110
012F
FEB7
FFFF
FFCC
00E8
FF1B
FEF7
009D
012E
FFCE
0076
FF03
0132
0006
FF8B
FEE5
FEB9
011B
0079
FCF9
FF15
FE6C
01E4
FF89
0008
0156
00CC
003E
0089
FEA6
0043
010E
0094
FF16
FF2B
FE98
FFF8
011D
FFBE
FF86
008E
FFC6
0084
FF4A
FFBA
003D
FED8
004E
0033
FF6D
018D
FF39
0032
013A
FE0A
0018
00C9
FEED
FF8E
FEC3
FF1C
0128
FFC5
012C
00B1
010C
002A
007B
FEF7
0012
00AA
0017
0057
FF50
0087
009D
010D
FFE1
0066
FF86
0007
FE71
FFAC
FEBB
0081
00F2
00B1
002E
0072
0050
0211
FF9F
FF38
000E
00B5
FEBA
FF35
FED7
00EC
FDB4
FFB5
FEAF
0085
0059
0095
00A4
00EA
001A
FEA7
FF58
FF14
FF19
FF5D
FE8E
000D
FF2C
0050
FEDD
0073
00C4
00BD
FF68
FF1C
FDD6
FE62
FFBA
0071
0090
014A
0185
00C2
FF92
00A4
FF19
FF92
0030
007F
00BB
FFB5
FE78
FF7A
FF73
0055
0049
0025
FFBC
005A
FEAA
00FC
FFB6
FF83
0065
FF84
000A
0054
FF79
0087
004A
00AF
FF73
FFF9
002E
FFEE
FFE3
FFFC
FF47
FFD5
004B
00CE
FFA8
0015
FFD4
FED5
0098
FEFF
FFDC
FE6E
FECA
0073
009F
FF1C
0027
0008
00F9
013E
FF61
0010
FF88
000C
00AB
0140
0076
FFEC
0001
0021
FED3
FFA7
FF17
FF9B
00E4
005B
FF80
FF5E
FF47
01BA
FF2C
0192
0004
006E
0093
014A
FD8B
0176
012C
FFC8
008D
FEBE
0007
FD5F
005B
00C4
FFB2
FF8F
0100
00CE
0070
022E
FEAA
FFB2
FF7F
FF42
010C
006B
FFD8
00BE
FF7D
FFE8
00ED
007B
0038
FF86
005E
FFB8
FEF3
00C4
0074
FF71
001C
009F
FF1E
001C
FFD6
FEB3
0037
FFCE
FFC9
017B
01F1
001C
01F4
FF8A
00FD
FEAB
0090
FFFA
FF61
FF83
FF75
FF33
00DF
004C
FF40
00CE
014A
FF49
008F
007B
FF8A
FEE5
FE9F
FF80
00E1
00AC
014C
FFB0
FF6D
016A
FE83
FFD7
FF9C
0097
FF0F
0103
FFE1
FF6A
FEF0
006B
0171
FEB9
007D
001F
002B
FD7B
FF84
FEB8
FF33
00AA
FFBC
FF6B
FEAE
FE67
FF3F
FFF4
0077
FF86
0027
FF60
0084
0134
0074
00A4
0080
0051
FFAD
FFB4
FF8C
FF52
006F
FF2E
FD79
FF85
FECF
0062
FF85
016F
FEA3
005C
00B1
FFBE
0073
0018
00F7
FEE4
FFA4
0055
010C
FFD7
FF94
0056
FEFC
0071
FE75
FF3C
FF6B
0037
FEDF
0024
FF03
00F7
FFB4
0024
000B
FF38
FFBB
FFE3
FF52
FE4A
00C0
002F
0000
FF97
FE2D
FF4D
006A
0009
0052
011B
FFE3
0048
000D
0124
0143
0093
0001
00AE
00C7
FF4C
0005
004F
FF73
FF28
0040
FFEA
FEB2
0005
0089
0033
011B
0102
00B1
00EC
00FF
00AD
FF3E
016F
009A
FF38
0006
0025
002E
FEE7
FEB9
0029
0135
FF74
0268
FFCC
0165
FF63
003C
0139
0023
FEE3
00DC
FFCB
0017
FF88
FEFD
0067
0124
FE57
FF48
FFCF
0150
0123
FFAB
004F
00CC
FED6
FFA2
FF9D
FEFC
00C0
FEC4
FED0
0045
0017
00D9
00FA
01AD
00CA
FF3A
FF22
0189
000B
FF20
0139
FE65
0091
FF47
FFB1
003F
00AF
FF92
FFF8
0217
FFDE
00C7
FFDE
FF2B
FEE1
0157
000E
00DA
00B8
FEF4
0097
0013
010E
FE8C
0197
0322
FFEF
FDF1
005A
FF5F
FEF8
FFFD
0075
018B
FE89
FFE3
FF83
FF3C
009A
FF51
FDB0
FF0C
0023
FFCD
020D
01D9
FFCD
FF80
0085
FF80
FEA6
00BB
FE84
FF42
FF4E
00F1
0004
0072
00BC
0032
011A
0074
FFC8
0068
0179
015D
FF85
FF75
008E
00BA
FFD4
FFC5
011A
0105
0045
0002
FF4E
FFCC
FF1C
0108
FF77
005C
FFEE
FFFC
FF87
FF60
FE8B
FFB9
00BF
0009
FFAB
FCC5
017F
0070
FF4C
0291
000E
FFD4
002A
0025
00C0
FFF9
FF1C
FF49
FE6D
FF09
0058
008C
FFD5
002B
FD9F
013F
FFC7
FFFA
0056
FF02
FDA7
FF17
FDF7
006A
FF90
FF84
FF56
0079
FFA9
FFC1
FED7
005A
01CD
0036
FFDE
FF8D
0156
0016
FF06
FFB6
0085
00CB
FFB2
0095
008F
FF1C
FEBC
0098
FF8B
0012
0045
FF87
0067
0002
FF89
00F6
FFA5
0020
0110
FEC5
00A8
FFA3
00C6
FFB6
00EE
003C
008E
FDD1
0169
FFBB
FF00
FF07
FF9C
FF51
01CD
FFF3
009D
FFF5
FEF4
FF78
FE19
00D3
00F8
00B9
000B
0001
00A4
006E
0123
00A3
0148
002E
FFDC
FFEA
011A
FFEC
0026
FF96
0047
00A1
0063
017B
010B
0043
FF18
01F5
0164
FF32
0123
FF97
01FB
0009
FF65
0023
FF9C
0096
0028
FEAE
FF99
008E
FFF6
0255
FF34
FF4F
002E
0011
FFA2
01E4
01D0
010D
FEE8
0048
FFF1
FEAB
FF47
009C
FFD9
0003
00D6
FFE2
FEDA
FFFE
010F
FFEA
FEBC
0163
00F7
FF74
0088
FF8F
FFBC
FF8E
FF26
FFB3
0159
0118
008B
0018
009A
015A
FF9E
FF83
FEAE
FF37
0092
FFEA
00B1
FF31
FD47
FF03
00E9
FFD3
FF0F
FFE2
FEA3
0068
012F
00DC
FFA8
FF5A
0118
FF58
0005
0189
002A
000A
FEFA
FF3B
0085
010A
FE37
FFF0
005C
0019
FF8F
0140
007B
0047
000A
002B
0020
0181
0253
FF5A
FEEE
00A6
007A
00C3
FE7F
01DC
FF99
0149
00DC
0029
001C
FFA4
006B
FF68
FEE5
00B7
00EE
FFC4
0008
0031
00B6
FEA7
FF7F
005E
FFF0
00E7
0003
FF59
00A4
011E
FF7A
000F
0001
FFE8
0008
FE29
00CA
FFBF
0153
FFD0
00E3
FEE7
FFCC
0081
FFB5
00F5
FE39
FF91
FFC2
00CF
0086
FF09
00A3
FFC2
FE0E
002E
0015
FFD0
FFC7
0116
006C
0040
015E
0008
0008
00B7
0092
FF9E
FDD9
FFDB
FFFD
0008
0062
FF55
FFC7
FFEA
FFF1
000C
0095
FF10
0034
00C6
0108
FF18
0086
00AC
013A
0060
FF42
00FE
0110
FFD0
FD9A
0085
FF7F
0027
01A2
FE5A
0159
004B
0059
000D
FE7C
010B
FF83
0077
00DF
FF3B
FE9C
0013
FDEB
FFCE
0052
0053
FFC3
FFBD
FE97
00F1
FE31
003C
006B
000E
FFFC
FF8F
015B
FEC1
FED2
0038
FF9F
FF09
FF9F
0123
FEE4
00F0
FDC0
FF5D
0121
FFAE
008D
FFE9
0035
FFB3
00A2
FF7C
FFBE
0039
0183
FF3A
00BB
FFFD
FEFF
0035
FFFD
FFDB
FEFD
005F
015A
FF44
008B
0007
FFE2
FE2D
FF52
FFD8
FEB0
0037
007F
0115
0126
FEB7
0011
FFC4
0273
006E
02C5
FEC9
0097
FF9A
0033
FFC4
FF5B
00B2
FFAA
0081
FFD1
FF9F
FF46
001F
FE26
0172
017B
006F
FF98
0060
0124
00A5
FE61
001E
006B
00E7
FFEB
FE8C
FFF8
FFC7
0168
001C
00D4
FF52
FFC2
FFD9
0187
FFAC
FF7B
FFE8
0125
005B
00D5
013E
0084
FF0F
021E
00A6
FE97
0133
FF5C
01E2
FF74
FE79
FF42
00C2
FE72
002C
FF33
FFDC
007A
FFA0
FECF
0027
FDC6
FF7C
FFCF
0163
FFA6
FFC1
002B
FFCB
0054
00C4
0110
0021
0120
005E
003E
FFE8
035F
0000
FF54
0002
FE6A
0018
FE85
001E
0178
FFE2
0044
0079
FEB2
FECF
0102
014A
FE4A
FE0D
FFC3
0086
0195
FE7A
FF8D
FFDA
FC4F
FFDF
00A6
009A
00DE
007C
0054
00B2
0023
FF62
00A1
FC62
00E2
01EE
FDD2
00B4
0149
0075
FDCC
01C0
0165
FF30
FF0E
0199
FEF2
FEFD
FF14
015B
0056
0120
01B4
0155
00CE
FF7C
00DF
FEFD
000A
FE79
FFA3
00E3
00F0
00E0
FED3
FFF5
0246
FFFA
FFCF
FF27
FF9C
0008
FF77
FF74
FFEE
FED3
0141
0105
FFC5
FEB9
0073
0009
0171
FFED
FFFB
0064
00E9
FFE7
0028
0106
FF22
FFC0
017B
FFE0
FE7F
00C1
0137
FF7C
00BE
0045
FFED
FFA2
FF81
FFF6
FEB4
011E
0154
FF6A
FFDC
0096
FE5C
FF3A
008E
FFB5
FF9C
0028
0117
FFCF
018F
000E
0028
008D
0199
00AD
FF81
FFFF
0271
FFDB
004B
FFDC
FFF4
00D0
FE42
0101
FE21
FFED
00E2
0011
000D
005E
FFED
0098
0146
FEE7
0090
FFF7
0183
FE85
0005
010F
FEAF
015B
0046
0021
0028
FE70
FEBA
FE63
FEDD
00B3
FFE5
00CF
FF0B
FEDF
FEA0
FEE8
015F
004A
FE51
015C
017B
FDB6
0063
006F
FECE
FEE2
0163
0108
0050
FFA7
0046
01B3
FD82
FF31
0075
FF6F
FFB2
FF46
